<pad>
</s>
<unk>
▁t
he
▁a
in
▁.
re
▁s
on
▁the
ou
▁,
▁w
er
at
▁c
▁o
is
▁m
▁b
an
en
it
▁f
ing
▁p
or
es
▁d
▁to
ed
▁I
▁'
al
▁h
nd
▁of
▁in
ar
▁l
▁th
▁y
as
ic
om
▁g
▁and
▁you
ll
ion
▁n
ve
▁T
le
et
us
▁e
ot
ow
ent
▁re
ct
▁be
ly
▁is
ro
id
▁he
▁?
ay
im
▁on
▁A
ig
ut
▁W
▁it
ld
ad
▁st
▁that
▁for
▁The
st
ver
ce
▁S
ation
ch
▁we
se
▁H
ir
am
ke
ith
ur
▁an
▁r
▁"
▁Y
▁wh
▁u
out
▁me
▁ha
▁with
oo
ht
if
▁B
▁C
▁was
ill
▁k
ter
il
▁are
▁as
ul
▁de
her
ra
▁con
▁M
ck
▁se
op
ol
▁ne
ant
▁com
ust
▁have
ight
▁not
▁do
▁You
ge
ould
▁pro
▁sh
ate
ri
▁O
ess
ment
ore
▁this
▁j
▁can
est
pp
ive
▁at
▁su
ect
ist
and
▁ch
ers
▁ex
ome
ab
▁your
▁-
▁D
ain
od
rom
▁or
ity
ure
our
qu
▁kn
▁He
th
▁N
▁!
os
un
▁v
▁li
um
▁Th
▁P
▁my
▁We
▁go
▁ab
▁L
nt
ea
▁al
▁wor
▁know
▁."
art
all
em
▁us
el
▁all
ry
▁so
ort
▁by
▁out
▁from
res
end
▁Wh
ap
▁sp
▁It
▁G
ally
one
▁F
▁..
▁up
▁...
ie
ast
ake
ies
ard
▁E
oug
hen
▁his
ud
ong
▁pl
▁will
ci
ood
ear
ack
ind
▁int
king
red
ine
▁has
ff
very
▁her
▁And
ous
▁like
▁R
▁just
▁man
▁one
▁comp
ound
▁about
iv
▁but
▁get
▁sa
▁what
▁they
▁But
ost
per
ice
▁im
▁him
▁don
ag
▁tr
ime
ide
▁cl
ell
▁ar
▁were
▁en
age
iz
ink
og
▁there
act
pt
ook
▁:
▁some
▁le
▁want
▁no
ical
use
ame
ther
are
▁J
▁un
▁ad
ac
▁had
ance
▁more
▁In
▁she
▁What
ans
▁who
▁ag
ich
▁cont
ep
reat
▁dis
▁any
ough
pl
▁would
▁ac
eth
▁res
ult
ase
ble
▁right
ang
▁off
▁lo
▁been
▁did
ip
able
▁gr
▁if
▁their
▁time
▁1
ak
ven
du
ays
ru
ign
ction
ause
▁fe
▁here
▁co
▁them
ated
▁pr
own
ass
ace
orm
▁got
▁qu
▁ro
vel
▁think
▁am
ress
ere
▁need
ary
▁app
▁pe
▁Ch
▁new
ree
con
ount
▁imp
▁over
▁could
▁U
ue
▁when
here
ence
itt
ition
ople
so
▁our
ire
ite
▁This
ia
ial
▁other
ec
▁part
▁see
▁back
ber
ose
ick
▁)
▁into
▁br
▁bl
▁(
▁year
▁than
ish
▁That
▁per
▁bec
▁work
▁which
ations
▁people
▁tw
ater
▁pre
▁gu
▁good
▁sy
▁So
▁te
cl
▁now
ile
ark
▁its
na
cess
ach
▁fl
ord
▁sc
▁said
▁should
ings
other
▁;
▁No
ade
nder
▁2
▁If
ens
▁She
ys
▁how
▁bet
fter
eah
ory
ions
ife
▁They
ild
▁only
▁too
lf
ub
ving
▁every
▁also
▁make
form
ob
ors
▁po
int
▁two
ject
▁St
lic
▁K
▁going
ail
iff
▁fir
▁under
▁may
▁des
ents
urn
▁down
pe
▁say
we
▁ind
▁take
▁way
ise
ved
stem
oc
ank
igh
▁bu
mer
▁Yeah
▁Well
▁inv
iss
▁ser
▁Oh
hed
oy
▁look
ought
▁car
▁call
▁eff
ious
olog
▁very
wn
uch
ft
▁To
cial
fore
▁thr
▁rec
av
tern
lp
▁ke
▁stud
▁mo
▁rel
▁som
▁system
ces
ning
▁tra
▁act
ph
▁There
ren
kay
▁sm
▁exp
onna
▁after
▁diff
ina
00
▁fu
ian
way
▁ph
ied
▁gonna
▁How
▁comm
▁first
▁long
ib
velop
▁again
▁tal
ict
ittle
ines
thing
ced
ting
▁help
ne
▁cr
ating
ool
▁em
ody
▁acc
ates
▁""
▁come
▁pol
▁count
▁much
▁even
ves
▁these
▁rem
oth
ond
▁tell
▁att
▁little
ple
ething
▁cons
▁rep
ific
▁most
get
▁ob
▁then
cre
self
▁life
▁well
▁world
▁does
▁develop
▁really
ily
ility
ons
▁happ
ower
▁let
▁produ
oss
ath
ug
ual
▁An
▁through
ful
ty
ange
▁years
ather
▁reg
▁mod
erm
▁never
▁sur
▁hand
old
▁day
▁something
cy
gr
▁because
▁high
▁wr
te
▁All
ational
ady
xt
vers
ics
▁great
ract
▁la
▁find
▁supp
ments
▁che
▁still
day
▁where
▁bel
▁mean
▁many
▁didn
▁used
▁As
▁before
▁Do
riend
▁made
any
ative
▁pres
▁When
ident
▁fin
▁pers
▁str
▁must
▁such
ethod
ert
▁gl
▁gen
ism
▁use
▁ev
▁ma
▁bus
▁show
▁trans
▁last
▁mon
hes
conom
ities
▁min
▁ent
▁ele
ular
▁put
ave
be
▁V
▁feel
ible
▁effect
ock
▁own
les
▁ass
▁ear
iness
▁differe
ually
ee
ouse
▁ins
chn
▁love
▁sub
▁mark
▁Is
▁real
ness
▁sl
ks
▁char
ures
air
▁econom
▁home
▁end
▁those
▁bo
▁My
▁inf
▁found
ased
ric
▁dec
blem
ween
vern
ew
ways
▁import
oney
▁cour
▁lea
▁thought
▁det
ution
▁start
▁play
▁try
▁problem
als
ron
▁set
lease
▁between
▁’
oll
▁For
▁fam
ecause
▁inter
▁cor
ng
ward
▁method
atch
hing
▁big
li
▁def
▁thing
▁3
pect
▁being
▁friend
uc
▁techn
▁Because
▁kind
▁give
ince
▁form
▁Okay
▁sign
ros
▁child
ait
▁Don
▁op
imes
cept
▁person
ix
▁kill
▁inst
▁Mr
uring
▁around
▁cle
▁old
ute
▁cap
its
arch
up
▁contro
arm
ner
▁anal
aper
ize
▁why
▁sim
clud
gan
▁always
▁prov
▁invest
akes
led
hip
▁head
▁three
▁govern
▁night
▁add
▁away
▁Hey
▁keep
▁Why
▁wom
The
▁ta
▁conf
ology
▁ref
▁disc
▁water
▁fact
der
▁ext
▁fun
▁pat
▁cur
ever
rib
▁sch
ited
ried
uss
▁might
▁dep
▁dr
▁better
▁exper
▁belie
▁run
ull
▁plan
▁cent
▁different
▁med
▁market
▁val
▁bre
gg
▁di
▁same
▁China
▁hard
▁doing
▁process
▁hum
ital
▁ret
▁main
▁things
▁turn
ked
▁Yes
▁wee
▁care
ruct
inese
▁lot
▁place
▁aut
▁prot
▁important
▁business
▁result
▁el
▁dist
▁sk
▁money
uck
irl
ts
▁Sh
▁coll
ized
▁Let
▁Just
cond
▁lead
▁mat
▁room
iew
▁On
▁num
▁mar
less
oup
ural
ern
orry
▁sure
▁point
amp
osed
row
ten
▁class
▁fore
▁Now
ization
body
ention
▁house
▁power
stand
▁design
pr
▁includ
ork
ened
▁paper
ries
▁another
ope
▁sw
▁few
ices
▁gener
▁stand
ature
cur
ient
▁lar
▁ca
▁adv
▁rest
▁rese
ason
▁Un
▁met
▁both
▁school
ists
▁art
ger
▁left
▁test
ield
▁each
ined
▁told
▁cou
▁anything
▁job
▁meet
▁expl
ove
▁grow
▁sol
formation
ublic
▁best
▁study
▁development
▁spe
rop
▁control
ef
▁ed
▁dem
gy
ale
▁treat
ins
atic
▁next
ered
land
▁seem
▁country
▁Can
▁talk
▁war
man
ash
▁law
ision
▁name
▁requ
▁while
▁stop
▁serv
▁kid
▁mem
▁ty
▁ever
▁girl
▁course
ense
ality
▁loc
▁government
▁company
▁state
▁small
▁mom
▁tea
ues
▁eas
▁Ob
io
▁without
▁giv
▁At
▁comple
▁dire
alth
ooking
▁says
▁came
▁air
▁Be
▁par
ters
▁pass
ency
▁incre
uro
erest
▁Al
▁second
▁dat
▁oper
▁mor
▁ey
▁5
▁Not
ross
▁const
ety
▁bad
▁prom
acter
▁beh
ars
▁Con
oot
▁Look
▁family
▁product
▁Come
ants
▁19
▁equ
▁list
nce
▁Your
ollow
▁One
▁word
meric
ird
ages
▁month
ling
ection
▁against
▁light
▁God
▁won
▁wait
ream
▁4
▁understand
▁quest
ering
▁open
▁group
ases
▁miss
ired
ted
ctor
▁change
▁went
▁exam
▁hot
▁id
▁poss
ets
▁pay
▁With
▁heart
▁enough
▁inc
▁Americ
▁Some
▁today
▁Re
▁intern
jective
ready
▁called
ably
ator
▁Com
▁resp
ulation
ared
▁build
▁book
▁believe
iron
▁okay
▁guy
▁interest
▁men
▁done
▁bas
▁read
ination
▁week
az
▁col
▁report
▁%
▁elect
▁information
▁ris
ike
rodu
▁human
lish
ium
▁dri
▁model
ides
▁already
▁Where
▁sit
▁Are
ught
▁leg
▁case
▁move
ertain
▁prof
▁toget
ier
▁together
▁nothing
▁less
▁sorry
▁face
▁mother
▁hy
▁doesn
▁full
▁aff
▁hu
osition
▁Who
▁bank
outh
▁hear
▁mind
▁eng
▁Ex
ral
▁conc
▁pri
▁His
▁est
▁hour
▁wal
▁Or
▁free
▁follow
▁spec
ished
▁bit
▁lear
ior
▁number
▁took
▁far
▁vis
▁cond
▁father
▁become
▁wanted
▁contin
▁whole
▁bro
err
▁stay
▁days
▁ant
▁children
ump
▁body
ability
▁everything
ically
▁applic
▁saw
▁public
▁trying
▁Did
ided
tain
▁jo
▁mil
▁cell
▁gra
▁chang
▁var
▁pur
--
cher
me
▁impro
ember
▁fil
▁indust
▁looking
▁av
▁city
ying
▁Chinese
▁shall
▁data
orn
ised
ration
ote
▁dra
▁someone
ining
▁unt
▁sing
ane
▁prop
▁ste
erv
▁since
▁hold
lect
arent
▁es
ivers
▁partic
▁Br
▁fr
▁level
▁polit
inal
▁saf
▁cra
cc
▁using
▁young
aw
▁20
▁research
ected
▁pain
inking
▁large
▁often
▁food
▁order
ai
▁present
alf
▁during
▁200
▁land
ately
ged
▁leave
uff
▁tem
▁"""
▁deal
▁cut
▁perform
gram
▁pop
ption
rent
▁getting
▁cult
▁break
▁meas
med
▁z
ex
iqu
▁commun
▁seen
▁May
▁bra
▁guys
▁cal
cing
▁press
sel
▁else
▁support
▁character
▁dead
ister
urope
ysis
aut
pped
▁adm
▁opp
▁organ
▁Thank
▁Of
▁top
▁hist
▁cost
▁four
▁live
▁team
▁Objective
▁proper
▁blood
ording
agn
▁means
ience
▁infl
▁working
used
▁sal
▁mus
cient
br
oh
tle
ains
▁past
▁Get
▁Every
▁friends
ional
▁ago
▁pract
▁Then
▁clear
▁economic
▁please
▁once
▁health
▁coming
▁low
idd
▁polic
▁suc
ified
aterial
side
▁whe
▁ve
▁wrong
▁boy
▁wind
work
▁idea
▁non
▁bab
ery
ured
▁check
par
▁countries
▁struct
▁offic
▁trad
▁gre
not
▁strong
▁da
▁times
▁manage
sh
▁son
▁discuss
▁short
▁prev
▁reason
▁near
▁side
▁cre
ned
▁special
▁Go
illion
ither
ury
ients
▁appro
▁env
▁sle
ows
ploy
▁having
▁woman
itive
▁bar
ah
ives
most
icle
ats
▁program
▁dev
ush
▁fre
▁ask
▁iss
▁news
ax
ched
ctions
ton
▁making
▁condition
▁china
▁bring
bers
ending
▁technology
▁tri
osp
uation
▁able
aster
▁$
▁material
▁pret
ung
▁hope
▁makes
iting
▁relations
▁tre
▁arm
▁heard
ently
orrow
▁area
▁bed
▁creat
ta
raph
▁field
ison
▁project
▁social
▁close
▁women
ene
▁activ
▁line
yl
▁rev
▁beg
▁win
usion
hor
ront
eng
▁After
irc
▁yet
▁talking
▁Ar
In
▁sound
oice
orts
▁net
▁finan
orth
ov
oid
▁until
utes
▁fall
▁6
ouble
▁party
eak
▁dam
▁term
ape
▁–
▁beaut
▁introdu
ny
▁Pro
iment
▁Please
▁yourself
ironment
▁matter
idence
▁Ind
▁redu
ware
▁Q
▁return
▁soon
▁actually
▁least
▁view
▁stre
▁These
ider
▁super
ames
mm
▁results
▁fut
▁later
▁rad
▁prob
▁sn
by
▁wasn
jor
ological
▁morning
app
zy
▁half
▁analy
▁comput
aken
ox
▁fire
▁ap
▁fine
▁fight
▁certain
▁death
▁educ
▁mess
dd
ude
ole
▁Any
▁investig
▁service
iter
▁wife
▁happened
▁Z
▁cause
▁hur
ards
▁fuck
ustom
▁pot
▁question
▁uh
▁Cl
etimes
▁mult
▁value
▁fac
istic
▁fail
▁problems
▁key
por
▁success
▁based
▁cop
apan
▁ra
▁current
▁mic
icult
▁remember
▁self
▁knew
▁quality
▁ener
▁direct
▁analysis
▁post
▁watch
▁five
▁secur
▁glob
mb
▁lab
▁lim
to
cially
aps
▁eyes
▁lost
iver
rug
▁Our
▁environment
▁ben
yn
▁sent
ode
com
▁growth
ening
▁Eng
cer
ruction
ential
▁cannot
▁red
▁economy
▁ill
▁management
▁compet
▁major
unch
▁10
▁desc
chan
▁yes
▁future
▁gave
▁baby
▁comb
▁isn
rist
▁New
▁Sp
▁swe
sw
▁oil
▁account
▁common
bs
▁mot
aring
▁application
▁door
▁circ
▁sugg
▁suggest
▁national
▁hands
itional
of
▁needs
ging
▁though
▁sleep
where
▁allow
▁hig
▁almost
ression
▁fund
▁step
▁local
▁brother
sy
▁office
over
▁prin
▁game
▁energy
▁early
▁possible
iously
▁black
▁international
▁deb
▁sex
▁taking
▁others
▁difficult
▁ready
▁complete
▁opt
ances
▁fig
ortun
▁along
ification
▁given
▁asked
▁treatment
ibility
▁mach
▁determ
▁rece
▁Se
▁front
▁months
▁easy
▁dad
ands
▁risk
oud
ift
ises
▁buy
▁custom
▁div
ze
▁ann
cle
▁financial
▁7
▁including
▁comes
▁De
▁thinking
▁quick
ching
▁Fr
▁Her
▁sever
▁type
▁stra
und
▁function
▁obs
▁dise
▁author
els
port
angu
ograph
iod
fect
▁Like
ising
▁/
▁Europe
▁tax
▁hours
▁fa
ones
▁record
▁8
▁sir
▁security
face
ief
▁saying
▁global
▁among
▁soft
ians
▁wouldn
ER
asing
▁known
▁nice
▁priv
selves
▁pretty
▁rate
▁within
ify
▁parent
ony
▁myself
read
▁happy
ler
▁space
▁relationship
ama
iet
ches
iful
itor
ique
▁phone
▁nat
▁fur
▁wond
▁af
▁flow
▁enter
▁sun
▁wants
▁secre
▁abs
▁phot
ffic
oun
pecially
eric
▁industry
hem
▁clean
▁policy
▁foreign
eg
iversity
▁mechan
▁dom
▁true
▁compan
▁appear
line
▁position
▁drug
▁late
artment
head
▁influ
▁example
▁probably
▁political
▁hell
▁students
let
▁sil
▁moment
eral
▁attack
▁improve
▁killed
▁deep
oint
▁story
▁alone
▁conn
▁several
▁pick
▁Maybe
gress
▁white
fer
▁behind
▁ur
anna
▁town
ource
cent
erve
▁yeah
▁hit
room
▁theory
▁signific
▁dream
▁eat
▁earth
▁maybe
▁dest
ission
▁structure
▁answ
▁hon
▁ton
▁police
▁respons
▁fav
▁living
▁estab
uth
▁access
▁history
▁president
▁started
▁effective
fact
ories
▁tom
▁9
ots
osis
▁Me
▁vol
ully
acy
▁cat
▁anim
▁Res
▁building
▁six
▁“
▁patients
ained
▁OK
aking
▁products
▁taken
▁X
▁ident
gen
▁pie
▁”
anger
iddle
ead
▁single
ored
▁production
oph
▁sell
▁tot
▁Right
▁exist
▁ide
ended
▁employ
▁invol
▁words
eter
000
▁capital
inist
▁road
▁inside
▁phys
ules
▁whether
oor
▁ground
▁Here
▁gun
▁Ke
gest
itting
▁provide
▁mr
▁gone
▁anyone
▁sat
▁minutes
▁consum
ogn
▁particular
irt
▁guess
aid
▁manag
▁Have
▁American
▁dog
band
▁langu
▁education
▁couldn
▁general
▁outside
erence
▁price
▁norm
▁Tr
▁experience
▁companies
ese
joy
▁rather
▁quite
oke
ources
▁himself
▁sense
▁pict
▁imm
▁soci
reng
kes
▁neg
istics
ret
▁jud
etic
olution
ms
▁US
▁emb
▁period
▁seems
▁From
▁bat
oub
▁bi
ule
▁i
▁princi
▁Take
▁typ
▁tar
▁cred
▁begin
elt
▁Even
▁chance
ilt
▁worry
▁pull
▁fast
▁coun
▁expect
▁beautiful
▁wall
▁foc
▁everyone
▁agree
▁Som
▁vict
▁tried
▁Gu
ott
itary
dy
▁profess
▁exc
▁foot
▁camp
▁gas
▁across
rap
▁sus
▁TH
ressed
▁lay
▁chinese
▁ce
chie
▁engine
imate
ills
▁sens
come
ughter
▁forward
▁del
▁performance
aff
atever
▁exact
ges
▁necess
▁Good
aim
▁die
oon
ivid
ived
▁accept
ication
▁pack
▁computer
▁table
▁scre
▁protect
▁hor
▁ten
▁strate
▁stuff
▁looks
▁benef
▁mur
lev
▁toward
fully
▁bur
▁concern
▁--
▁higher
▁brought
▁either
▁official
sc
▁americ
▁streng
▁object
▁stat
▁modern
▁kids
▁mass
▁trade
▁respect
▁pressure
▁safe
▁meeting
▁squ
▁speak
▁according
▁trust
▁Pl
▁hair
▁&
gu
▁ir
▁drink
oe
▁longer
ilar
oose
▁Man
ney
▁pea
▁orig
▁gotta
ES
▁Ab
ences
▁tonight
▁require
▁further
▁perfect
▁secret
ament
iation
▁hus
ples
▁parents
▁temper
▁card
▁couple
▁age
▁especially
▁role
▁rock
▁enc
▁achie
▁fell
▁inn
▁cases
ding
▁ship
uses
cience
▁ball
▁share
het
▁dark
ij
▁force
▁conv
▁tomorrow
▁wanna
iding
soci
ators
▁effic
▁corre
co
▁hosp
ming
▁simple
aces
▁Mar
▁avail
▁million
▁usually
▁scient
▁tou
▁music
▁walk
▁English
cu
▁repres
▁cross
▁emer
▁likely
ring
▁above
▁natural
▁United
▁Bl
▁cold
▁stri
▁running
▁happen
cious
astic
iol
ends
clusion
▁Christ
lt
vert
▁god
put
▁din
▁Will
▁learn
▁shot
▁truth
▁situation
▁sold
▁Am
rest
yle
OU
ledge
▁needed
▁enjoy
chers
▁looked
pping
▁slow
▁react
▁spir
though
lement
▁effects
umb
▁Ad
ster
▁et
ival
IN
atory
mp
▁crit
▁However
▁ang
▁bal
▁cy
▁upon
▁Japan
▁disease
▁cry
▁recent
ken
▁works
▁plant
airs
▁poor
egr
▁shop
▁Uh
▁changes
▁mis
▁king
▁chem
▁mist
Th
▁Gr
▁ord
▁culture
▁husband
bit
▁pen
▁supposed
▁methods
▁goes
▁entire
▁Pe
▁serious
▁Which
▁dig
▁base
▁Car
omm
ley
▁detail
▁operation
▁subject
▁target
izing
▁consider
▁content
▁offer
▁Intern
▁language
▁imag
▁cover
▁individ
▁Was
▁grand
ivil
ensive
▁felt
▁bud
▁terr
▁knows
▁List
une
▁action
▁box
ps
▁path
▁lives
▁wish
▁middle
▁grad
▁increase
▁wide
▁Ne
for
▁gold
▁30
▁gets
ball
▁log
▁doll
▁began
▁Pr
▁oc
▁port
▁event
▁turned
ounds
ann
▁pred
▁surface
▁behav
▁doctor
▁extra
prise
▁fear
▁society
▁answer
▁fix
▁ple
▁attention
▁America
▁By
▁hop
▁green
lear
go
sych
▁article
ites
resh
▁private
▁demand
▁brain
ped
▁sea
the
irth
▁travel
▁street
▁Wait
▁network
▁eye
▁Joh
irst
▁prep
wh
ume
▁cool
▁suff
▁systems
▁hyd
urs
▁threat
▁shoot
ires
▁sometimes
bo
▁personal
▁amount
▁available
▁mount
▁distrib
▁15
▁died
medi
▁indic
▁clin
▁cells
▁disp
▁flu
▁fish
rate
aly
▁hotel
estern
▁individual
▁Per
▁administ
omes
▁wonder
▁Ph
▁ability
▁repl
amed
▁chall
▁separ
haps
▁daughter
val
more
▁mer
ili
▁significant
▁weeks
▁drive
▁danger
▁carry
▁Tell
ilities
anced
▁listen
▁shows
▁Many
▁text
▁members
▁coff
▁hospital
lished
▁feeling
▁eval
atures
ued
itted
▁court
▁third
▁exactly
▁cris
men
▁John
▁takes
ension
▁machine
unk
▁hurt
▁contract
▁evidence
▁draw
ask
▁heav
▁recogn
▁specific
▁ge
▁became
▁analyz
▁worth
▁services
fort
▁military
ma
▁mag
▁luck
▁Comm
▁peace
aven
▁skin
▁create
▁developed
▁stock
▁store
▁investment
▁areas
▁claim
▁leaders
▁rich
▁lower
▁civil
▁speed
ufact
rict
▁sum
▁aw
▁opportun
son
▁micro
▁fill
▁decl
▁mechanism
▁practice
raid
▁tool
▁star
▁sweet
ege
cul
▁approach
▁favor
▁construction
▁ones
▁fat
▁itself
▁central
▁conditions
▁block
▁exec
▁Hell
ners
▁fucking
▁acid
▁ways
▁traditional
inary
▁themselves
▁arri
▁vari
▁similar
▁occur
▁cam
▁save
▁send
empt
ivity
▁reform
like
▁questions
lor
▁Af
▁loss
▁viol
osing
lo
▁deli
▁ess
▁App
▁En
itch
▁however
▁Sc
▁aud
idge
▁visit
▁nature
▁12
▁tour
ively
▁property
▁color
▁associ
ply
▁experiment
▁showed
▁studied
▁track
▁knowledge
ached
▁represent
▁sort
▁mov
▁normal
▁basic
▁decision
utions
unt
▁burn
▁measure
▁various
aur
rial
▁dinner
▁appl
▁ut
▁integr
▁birth
▁credit
▁round
cell
▁See
▁afraid
ha
lex
▁image
▁minute
era
othing
▁prim
▁crisis
▁trouble
▁Dr
▁lose
▁More
aining
▁equip
▁Listen
ests
▁due
▁fair
▁poly
▁search
▁init
▁Would
duct
▁instit
▁Tw
ray
▁lat
▁psych
eed
ially
▁following
▁pan
▁choice
▁bull
light
▁include
▁source
▁size
▁States
au
▁date
▁standard
▁docu
▁manufact
▁201
▁waiting
▁ep
▁parts
▁Stop
▁prices
▁address
▁rap
▁necessary
▁nuc
▁decided
bon
bed
amm
▁subst
▁forg
▁region
AT
oul
eness
▁resources
▁complex
▁influence
▁resist
▁girls
▁coffee
lying
ijing
▁prevent
▁center
▁harm
▁contact
▁board
▁medic
▁ver
ceed
▁code
▁victim
▁issue
itation
▁roll
just
ping
▁mine
hold
▁autom
▁interv
ien
▁popular
▁suit
▁worked
▁concept
▁occ
▁forget
epend
ighb
▁training
▁Does
amic
hib
▁married
▁intell
▁bag
▁rob
▁thank
▁banks
eal
▁caused
▁People
▁sister
▁advant
▁introduced
▁increasing
▁displ
▁anti
▁Sorry
▁thous
reme
▁quickly
▁weak
han
oes
▁playing
▁glass
▁weap
▁Brit
▁Pres
▁science
▁rules
▁related
▁factors
▁Germ
iction
▁implement
▁disapp
▁obv
▁figure
▁lock
▁warm
uan
▁dro
▁While
rench
▁exch
▁hang
▁ahead
▁write
▁Give
ties
▁deg
▁haven
▁sam
▁link
ocr
▁smo
vere
▁Most
▁Hi
▁potential
▁rat
▁host
▁surv
lier
▁pos
▁diagn
itude
▁progress
▁telling
▁continue
▁optim
▁Thanks
ooper
▁wood
▁medical
▁compl
▁shit
▁doub
▁temperature
▁describ
arr
▁Su
▁spirit
aced
set
fl
hern
▁vill
▁characteristics
▁neighb
ground
▁avoid
▁dyn
oura
aged
▁ens
▁frequ
▁ban
▁piece
▁held
che
▁sick
▁regul
oly
▁defin
▁south
▁broad
▁changed
▁song
▁safety
▁markets
▁Only
▁Wor
▁file
▁pattern
▁vac
▁review
▁equipment
iant
cise
▁boss
▁magn
▁film
▁voice
▁immedi
▁focus
▁Le
▁crazy
othes
ults
hood
amb
▁shut
▁stage
▁Ah
▁activity
▁Russ
▁tend
cil
ao
▁straight
▁feed
ables
▁site
AN
▁station
▁farm
▁rights
▁picture
▁jour
▁software
ously
▁18
▁inj
▁Put
▁arch
dom
▁Sy
▁north
▁fru
▁breat
▁total
▁reach
It
▁heat
▁cancer
▁sales
▁somebody
▁South
▁vide
▁stru
inate
▁esc
▁pal
▁drop
▁ran
▁impact
ban
▁Rep
▁moving
▁Part
▁huh
▁message
▁weight
▁liqu
▁ult
▁legal
estic
▁floor
▁dress
▁university
▁>
▁Hello
▁lack
▁difference
▁—
omb
▁states
ades
▁mid
time
lin
▁materials
▁poll
dden
▁basis
ees
▁train
▁media
terday
▁hund
nal
▁finally
▁double
lation
▁hundred
pper
▁whatever
▁Since
ulf
▁percent
ancy
gor
▁strength
▁former
▁fra
▁Acc
▁ox
▁catch
▁199
▁lie
▁establish
▁Te
▁touch
gue
▁built
▁First
▁liter
uate
▁kept
▁island
oring
▁firm
▁feet
▁har
key
▁match
af
▁sudden
ronic
▁college
▁achieve
▁aren
reci
iency
▁adop
uted
▁tree
▁huge
▁fresh
▁Could
▁Des
▁hate
▁chief
▁teaching
▁Sure
▁bott
▁except
▁Fin
▁Other
▁completely
▁comfort
▁books
ON
rupt
▁electric
▁rain
▁giving
▁blue
▁load
▁debt
▁resear
▁100
▁print
▁wed
off
▁points
▁rout
▁levels
enty
▁TV
▁affect
ont
▁simply
ental
verage
▁attempt
reg
▁compon
▁counter
iang
urance
rew
▁obtain
▁issues
sp
OR
ems
ondon
ky
▁groups
▁spend
▁features
itten
▁terms
▁ter
▁damage
▁den
▁park
isc
▁prison
▁purp
▁summer
▁pub
▁fem
▁North
▁stress
▁vir
▁mouth
hy
▁pros
If
oming
▁relative
omp
▁clinical
▁mob
▁bird
olute
▁charge
▁supply
back
rael
▁protection
▁anymore
▁argu
▁50
ik
▁designed
▁Great
oses
▁regard
inated
fast
▁window
▁spread
▁solution
▁river
▁instead
de
▁eight
▁assist
▁leaving
▁fing
my
▁paid
iny
eared
▁workers
▁behavior
riage
▁spent
▁discussed
▁cast
▁growing
ux
itness
▁sen
▁dry
▁hol
▁plans
▁Che
▁community
▁developing
▁Qu
▁tast
▁Ge
▁enem
omet
▁00
rast
▁chemical
▁pow
▁collect
rol
ords
▁und
rief
▁correct
▁cash
term
▁accident
iday
▁maintain
▁tur
▁]
wise
▁heavy
▁select
▁series
▁season
▁nuclear
upid
▁club
▁vers
▁teacher
▁Comp
▁bill
itis
▁style
onse
▁jump
roy
▁reduce
▁0
oma
▁demon
▁pet
▁measures
▁mention
▁involved
▁memory
▁final
▁Har
▁Us
▁Ag
▁ice
▁mal
▁YOU
▁Method
▁conduct
▁boys
▁wear
▁recently
▁activities
omy
▁command
▁led
apt
lcome
▁mix
▁rapid
▁gives
▁expected
▁mad
▁independ
oms
asc
▁meant
▁arr
▁proced
▁Stud
▁fed
▁positive
▁cooper
▁Jack
▁iron
▁aim
omen
▁mainly
order
rel
urch
▁whose
▁lif
▁corpor
▁online
▁letter
right
EST
▁studies
▁summ
▁controll
▁physical
▁billion
wor
owing
▁learning
▁commer
▁detect
▁President
iling
▁rise
▁err
▁Inst
▁[
▁alive
▁department
▁11
▁crime
▁contrib
att
▁staff
mon
entle
▁labor
▁spot
ae
su
▁Sm
istan
▁beginning
▁pun
▁writing
▁century
ography
▁Sometimes
▁meaning
▁tick
▁concent
▁murder
ym
▁nut
▁Their
ein
▁addition
▁eth
▁mill
▁patient
▁wild
ram
▁easily
▁asking
ipped
▁seemed
cies
▁everybody
▁goods
▁competition
▁ring
hai
ulate
▁exer
▁principle
▁technique
▁wat
▁range
uly
▁rule
▁happens
▁Afric
▁video
▁master
▁proposed
,000
asure
▁yesterday
▁Char
▁beat
▁etc
▁clothes
▁hydro
ids
▁provides
This
gorith
▁clos
▁quant
sequ
asons
▁er
idered
▁strategy
atives
▁cand
▁device
▁veh
▁explain
oday
▁extreme
een
▁transfer
▁created
hu
▁reflect
gn
▁York
▁quiet
▁ain
▁Um
▁bond
▁response
▁attract
isions
▁spect
uty
▁Once
▁lady
▁sand
▁stick
year
▁moved
▁exchange
▁choose
zz
▁cere
vey
▁flat
▁Int
▁emot
▁Two
▁Act
▁quar
iger
▁applied
▁hous
umn
overed
▁appreci
▁instru
▁reve
ino
▁promise
xim
▁reported
▁Cont
verse
▁directly
▁stupid
▁rates
yond
▁towards
▁remain
▁produce
ev
iot
▁calls
▁industrial
▁famous
▁European
▁Gen
▁bath
▁THE
▁acqu
▁caught
▁unit
▁Par
▁waste
▁param
▁satis
▁required
ops
▁born
▁considered
▁transport
overy
▁sem
▁reading
▁chair
pir
▁officials
▁movie
▁increased
▁opportunity
▁costs
gar
acity
▁steel
ran
▁innov
▁Before
▁provided
▁cru
▁investigate
▁ideas
▁regular
▁army
rated
▁tele
▁reb
arily
▁arrest
▁Those
▁algorith
▁allowed
aker
▁europe
▁agent
▁egg
▁promot
▁sad
ogen
▁ign
▁ancient
iers
▁animals
▁nation
▁adjust
▁Tom
lection
iving
▁drugs
▁seven
▁Cent
▁domestic
ores
▁rare
▁joint
▁particip
▁histor
▁sche
▁direction
road
orge
▁presented
▁finish
▁forces
▁ast
book
▁Bar
▁belong
▁Ro
▁cit
▁trip
▁surpr
▁Conclusion
▁Col
▁signal
▁accur
▁cele
clus
eration
▁unf
▁distribution
▁confir
raft
▁member
▁plane
▁received
mark
▁west
▁Today
▁demonst
▁convers
▁missing
▁spl
▁relig
ropri
▁student
▁dance
▁types
▁goal
▁soil
▁soul
▁user
ips
olic
▁bright
▁Ear
▁University
▁original
uous
▁population
▁Exc
eech
▁efforts
mission
▁Nothing
pects
▁remains
reed
▁Although
erved
▁places
▁wine
▁worse
▁radio
▁mut
▁crim
▁Li
▁Yet
▁medicine
▁According
ING
pite
▁Internet
▁yours
▁planning
▁complic
▁page
▁synt
rible
cast
▁biggest
▁handle
based
▁leaves
ares
yw
aign
hens
▁smart
▁connect
▁ble
▁yell
roll
▁recomm
alk
▁gar
▁tight
▁fruit
▁challen
▁request
▁Last
▁status
IS
▁laug
▁Ac
vent
▁bought
▁restaur
▁forest
AS
▁fault
▁analyzed
ey
cks
▁Mrs
▁dim
▁powerful
ault
▁realize
▁trend
▁manager
hou
▁amb
▁nearly
▁speech
▁calling
▁encoura
▁species
▁lawy
nel
▁scene
rough
aries
▁descri
▁animal
▁earlier
▁liquid
▁jobs
▁seeing
pro
▁impl
▁Cause
▁flight
▁sounds
▁install
AR
rab
ibly
▁degree
▁passed
▁TO
▁professional
▁contain
▁willing
▁leading
▁investors
▁kinds
▁factor
gery
▁added
▁multi
▁destroy
▁sec
adem
inc
▁breakfast
gic
▁spo
▁25
▁Hu
▁thinks
antic
mas
vest
▁Never
▁display
ok
▁glad
▁properties
▁traffic
▁express
▁tub
tery
▁established
esus
▁cook
▁carbon
▁busy
▁beyond
▁gentle
▁um
▁loved
▁written
inct
hetic
▁sky
▁Co
▁certainly
house
▁calcul
▁customers
▁broke
▁communication
▁wave
ulated
ented
nces
▁plants
▁opin
▁expression
▁greater
▁Excuse
▁smell
▁played
▁failure
▁campaign
▁multip
▁screen
▁particularly
▁hyp
▁includes
▁constit
▁advantage
▁marriage
▁Pre
▁kiss
▁fort
▁miles
ipe
▁starting
▁interview
iled
ervation
▁element
uls
▁sitting
▁Got
▁execut
▁responsible
▁perhaps
ittee
icles
▁Cal
EN
▁intellig
▁coal
▁numbers
▁thanks
▁stopped
udd
▁hero
▁der
▁dangerous
▁highly
▁broken
▁american
erson
▁Dan
▁French
using
iles
▁bound
▁average
now
eaking
▁novel
▁x
▁shouldn
itely
▁horse
▁spring
aint
▁minister
▁task
▁watching
▁immediately
arden
▁Another
lim
▁leader
▁bear
ula
▁honest
hel
▁16
▁crow
▁rid
ctors
▁document
▁users
▁virt
▁shown
▁japan
▁learned
▁western
▁liber
aled
▁Fl
▁shape
▁....
▁Art
ED
▁reasons
▁prepar
▁weather
arant
▁helped
▁lines
▁therap
▁High
▁strugg
▁vot
▁bottom
▁movement
▁carried
▁About
ocol
▁prepared
▁processing
▁lad
▁ensure
▁boat
LL
▁insurance
▁below
▁Its
▁susp
▁enterprise
▁mir
iced
▁doubt
▁brand
▁cultural
▁40
▁amaz
▁becomes
▁balance
ength
▁Keep
▁rot
▁interesting
▁frame
ears
load
▁funny
▁phil
▁evening
aging
▁events
▁till
▁pig
▁Lea
▁driving
▁vent
gment
iveness
ica
▁honey
▁phen
▁income
▁Really
aving
▁World
▁active
▁fly
▁rub
anghai
▁effort
aling
▁interested
▁standing
▁reaction
▁telev
gle
▁cab
▁hall
▁cup
▁terror
▁unique
▁band
▁technical
cop
▁Beijing
▁fool
board
▁lunch
▁repe
▁scientific
▁brief
▁Mom
▁ec
▁spending
▁games
▁purpose
izes
▁Make
▁explore
ius
▁East
▁largest
▁sight
▁hun
▁shar
while
▁anybody
▁Ma
▁Lord
▁partner
▁Three
▁prior
chen
▁environmental
odies
As
▁applications
▁Rem
▁boo
▁tum
avid
bing
He
round
▁career
▁organization
resp
▁administration
▁chick
▁wrote
▁judge
▁Everything
▁freed
ashion
▁efficiency
▁hey
▁commercial
oration
▁Under
▁rooms
▁Sim
▁anyway
▁wedding
gency
▁uses
▁described
▁qual
▁seed
▁index
▁cloud
▁Over
ession
arian
▁internal
▁fi
cellent
▁monitor
▁Bet
▁witness
asion
▁agreement
▁understanding
ushed
▁consist
itect
▁section
▁holding
mit
▁capacity
▁primary
▁closed
▁conflic
▁predict
▁plat
▁=
▁wearing
iable
▁limited
▁responsibility
aches
▁metal
▁Sec
▁prefer
aves
▁desk
▁chann
que
▁kit
▁join
▁solid
ender
iam
▁algorithm
▁mistake
▁purch
▁flowers
▁race
▁London
▁tired
▁names
▁raise
▁Miss
wed
▁tro
▁successful
▁cars
▁worried
▁capt
olutely
▁guarant
▁client
▁negot
▁failed
▁dan
▁trees
cr
icking
▁circum
▁celebr
▁onto
▁lived
▁diss
orea
char
action
▁plate
▁ru
▁bran
istry
▁shock
▁core
▁Sir
▁useful
▁kick
▁Both
nes
▁stability
▁hung
then
hington
lig
▁scale
▁advanced
▁daily
▁relax
▁reports
▁Such
▁america
▁location
asty
wan
▁Each
▁depend
▁tiss
▁moon
▁wire
▁causes
ils
irty
▁fit
▁wealth
▁constant
▁enh
ael
▁battle
▁curren
▁skills
▁sust
ript
aul
▁concerned
oman
idents
▁seat
▁followed
▁swim
▁motor
▁tit
down
apers
▁note
gin
rim
▁weren
friend
▁bow
▁pool
▁church
▁compared
▁surgery
▁clearly
▁negative
▁challenge
aped
▁Jesus
▁cities
▁faith
▁assess
▁fuel
ara
▁Methods
▁guard
▁truck
▁snow
▁dial
▁throw
▁enemy
-1
▁ride
▁India
rm
▁push
levant
▁talked
▁bot
▁television
▁finished
▁climate
illed
▁decre
▁somewhere
▁thick
▁aware
rs
rog
▁dollars
▁clim
ricult
▁citiz
▁crowd
▁widely
▁gir
olf
tered
▁requirements
▁notice
▁rele
ada
▁?"
▁Gl
atically
eters
▁mort
▁honor
▁welcome
noon
▁Mon
▁mountain
▁Tra
osite
▁slight
▁neck
▁nor
▁fully
▁British
▁recon
semb
▁parties
▁symb
▁feature
▁Med
▁tough
▁resistance
▁blow
▁scen
yal
▁produced
▁arms
illy
▁Cor
▁opened
ropriate
▁minim
▁diagnosis
prises
▁tow
▁benefit
▁ju
▁datab
▁researchers
▁prove
▁engineering
▁walking
▁lucky
▁practical
▁agricult
▁healthy
rad
RE
hest
▁crack
▁policies
▁lying
▁prem
▁expand
▁urban
▁values
▁suspect
▁14
▁Sch
▁Cong
crete
▁Im
▁Israel
cont
aked
ounced
itable
▁Min
apter
▁director
gel
mpt
tering
▁scared
ensity
▁damn
▁trick
▁totally
▁projects
▁veget
▁hem
▁fighting
▁mode
▁Hold
▁forgot
▁uns
▁milk
otic
▁newsp
▁offers
▁copy
II
▁eating
▁village
▁mission
▁van
▁rail
▁pregn
rical
cket
▁elements
vered
▁severe
▁partners
But
▁careful
▁germ
▁bone
▁benefits
▁appears
▁female
▁investigation
▁reality
▁testing
▁Pol
▁serve
sis
▁opening
▁Sam
▁strange
▁corner
cean
▁Something
▁communic
▁indu
▁models
▁empt
▁stim
▁coast
wards
akers
▁budget
urg
▁architect
ipp
▁limit
ifying
▁actual
ossible
ilies
▁associated
▁release
▁tim
itions
ustral
▁Out
▁compar
rant
▁determined
▁blind
▁critic
▁altern
▁unc
ses
▁herself
▁respond
▁forms
▁digital
IT
▁existing
▁treated
▁named
enn
▁sin
▁sout
▁inform
▁libr
▁nar
▁conven
phone
▁east
▁planet
▁13
▁West
▁advert
▁male
▁afternoon
▁phase
▁governments
ker
▁latest
▁mole
▁War
▁absor
▁generation
▁sports
▁thus
▁schools
ager
▁24
▁knock
▁tests
▁wis
▁reached
▁san
ero
rehens
▁beauty
▁thin
▁thousands
▁17
▁imagine
▁Whatever
▁hyper
▁hole
▁bridge
▁meat
▁exercise
▁depos
▁determine
▁El
ichael
▁Haven
▁distance
ffect
▁advice
▁agreed
▁essential
▁funds
▁map
▁customer
▁connection
▁electro
water
▁Japanese
▁Ed
icit
▁suddenly
jection
▁multiple
▁standards
▁Dep
▁mac
racy
▁freedom
cles
cut
▁taste
▁becoming
▁bomb
▁univers
▁reven
▁details
wing
fficient
ID
▁importance
▁therapy
▁lin
▁candid
▁camera
▁enterprises
▁revolution
iliar
▁commit
▁located
▁Op
oved
▁raised
▁weird
▁forever
▁angry
▁bitch
▁proud
▁winter
eless
▁putting
▁weapons
▁decide
▁City
▁construct
▁keeping
▁statement
▁pump
ald
▁stone
ructure
erves
▁fle
ico
▁jack
▁improved
▁steps
uration
▁apply
▁scientists
▁lic
▁Mor
bl
asm
▁apartment
▁length
iques
▁laws
▁Someone
▁State
nown
▁remark
▁garden
▁du
▁tools
▁shoes
craft
mber
▁fashion
▁During
▁fixed
▁obvious
ata
esides
▁murd
aser
porary
ounce
▁Fine
▁feelings
▁inspect
▁furn
▁rough
▁web
▁mobile
▁Cons
▁restaurant
▁Try
▁remind
▁gift
▁teach
▁apart
▁killer
▁yield
alt
▁opinion
▁Therefore
▁walked
ulations
▁election
▁bigger
cons
▁protein
▁appoint
▁easier
▁philos
▁hat
oret
▁trial
ache
▁settle
▁criminal
▁Mic
▁Should
▁files
▁dear
▁pray
▁Frank
▁wonderful
zen
▁consult
force
coh
▁rul
OM
▁dynamic
lfriend
▁transform
oles
▁killing
anc
▁pictures
NA
▁interp
▁nort
gent
ror
▁mel
▁Christmas
▁bell
▁pu
ham
▁excellent
▁nobody
▁Gree
lymp
▁brit
▁surround
bert
▁pul
▁journal
▁euro
▁finger
arently
rier
▁paint
▁solve
▁earn
ocratic
▁operations
When
▁Fe
▁borrow
▁Hong
▁manufacture
▁forced
ales
ship
▁tun
▁firms
▁Resear
▁interests
▁unless
▁anywhere
iate
▁none
▁Ser
▁families
▁impossible
▁Very
ortion
▁Turn
▁officer
▁believed
illing
▁noise
▁covered
▁lies
idden
▁rom
▁recovery
▁storm
▁strengthen
▁obtained
▁receive
▁administr
▁worst
equ
▁lawyer
▁included
▁therefore
▁birthday
elling
▁helping
▁Mc
▁critical
▁previous
▁variety
▁origin
▁Dis
▁hide
iform
▁fab
▁likes
▁efficient
ios
xi
▁player
▁requires
▁fields
▁emph
▁phenomen
▁nav
▁198
▁database
▁relevant
▁champ
▁academ
▁pure
▁sympt
▁sequ
▁generally
▁Prov
▁foundation
▁Cap
▁Pal
▁favorite
▁Back
▁functions
umin
ading
▁smile
▁Bra
▁driver
cin
orage
▁discovered
▁cooperation
▁changing
ashed
▁extremely
iments
▁Asia
▁bacter
▁swear
▁offered
▁assum
▁reference
▁Det
uit
▁Hot
▁estim
▁Africa
▁arrange
▁Has
▁therm
▁twice
▁rent
▁version
▁feels
▁Nice
▁arrived
▁comfortable
▁chain
▁consequ
▁background
oned
▁Dad
▁surprise
field
▁regional
▁root
▁sett
▁Russia
▁rising
▁Based
mosp
▁records
etary
gues
▁edge
▁combination
▁wake
▁challeng
▁independent
▁separate
▁duty
▁currency
▁restrict
▁united
▁characteristic
▁vote
▁yellow
tes
ingu
▁option
▁International
▁square
icide
▁wound
▁bodies
▁sector
▁factory
▁politics
respond
▁weapon
rie
▁amazing
▁molec
▁zone
▁happening
▁output
▁grab
▁vision
▁fol
▁Rec
▁conference
ologies
▁Reg
▁terrible
▁fundament
▁expert
▁Finally
▁calm
▁evil
▁Perhaps
▁filled
▁finding
▁plastic
▁assign
▁sav
▁occup
▁tail
▁dust
▁returned
▁layer
ET
▁replace
▁hom
▁combined
▁circumst
▁ideal
▁empty
▁obviously
▁Em
▁saved
▁operating
▁emergency
▁resource
▁cart
▁marry
▁helps
▁throughout
▁definitely
▁corporate
ception
▁speaking
▁Pat
ulous
▁ourselves
▁although
▁turns
under
▁evaluate
gypt
▁grass
▁girlfriend
▁promote
▁afford
▁Think
▁selling
amn
▁National
▁kitchen
▁thousand
▁pra
▁Coun
▁employees
▁medium
▁sides
IC
how
night
▁procedure
▁assets
▁organiz
▁agency
▁nerv
▁authority
▁ing
▁dollar
ternal
For
asy
▁picked
▁drag
▁France
▁symbol
▁appreciate
acing
▁cryst
▁queen
ana
▁flex
▁platform
▁Ste
▁vehicle
▁uncle
▁AN
▁stood
orter
▁pulled
▁seriously
▁elim
pective
▁error
asis
▁stories
▁increasingly
▁appropriate
▁plays
ours
▁atmosp
▁continued
▁David
▁Bo
▁mere
works
▁larger
▁ded
▁deliver
▁King
▁fract
▁mail
icon
▁fib
oogle
▁valid
atell
itory
▁Germany
▁stars
cip
standing
▁neighbor
rage
▁smoke
zhou
iforn
▁tissue
▁significance
▁correspond
▁pair
urt
▁contains
▁authorities
▁senior
ishing
▁signs
▁gain
▁superv
▁trig
▁setting
▁frequency
point
▁greatest
▁cow
▁Rel
▁stream
ocracy
anted
▁allows
▁weekend
▁internet
▁techniques
▁alcoh
▁injury
abil
▁diam
sts
▁cert
eper
▁fif
ortunately
▁images
▁prime
▁familiar
▁Second
▁missed
▁pin
▁whom
▁components
▁bare
▁teachers
osal
▁export
▁football
acters
ophy
▁isol
▁resol
▁hearing
▁gene
▁matters
▁infection
▁realized
▁Red
▁maxim
▁shift
can
▁magic
atur
▁eventually
▁Mean
▁extract
▁Bank
▁clock
tion
▁sharp
▁players
▁poison
▁diseases
▁Ant
▁confidence
▁wet
▁Inter
▁dropped
▁photo
▁justice
▁advance
▁rein
▁older
▁drinking
▁thoughts
▁sexual
ompl
▁Obama
anged
▁guest
▁minor
▁concrete
ushing
▁consumption
▁delic
▁seek
▁illeg
And
eding
▁soldiers
▁nine
▁federal
▁upper
osure
▁nose
▁rose
▁column
▁initial
▁relatively
ipping
▁Keyw
▁numer
▁hasn
▁captain
To
kin
▁60
▁quarter
▁sugar
▁expensive
▁rice
▁Trans
▁fan
▁innoc
▁liver
▁institutions
vernment
oop
▁vit
za
▁actions
▁formed
▁smaller
▁items
OT
US
mo
ss
▁escape
alysis
▁inflation
▁Coll
▁appeared
▁fal
▁coord
▁virus
▁synthes
▁Gre
etry
oos
▁motion
▁cas
▁Keywords
.5
▁evaluation
▁mental
▁flo
▁Help
celer
ference
▁webs
ifornia
▁brown
▁spoke
ris
▁regist
rees
▁aid
▁unp
iring
▁cate
anda
▁scar
▁smooth
▁apple
▁survey
place
▁innovation
useum
▁conversation
▁accompl
▁characters
▁boyfriend
▁.....
▁Actually
▁comprehens
▁flood
▁German
uries
▁nervous
alled
▁faster
ateral
uild
▁Park
▁programs
igation
▁Still
▁additional
cel
icip
▁server
▁comment
▁Stay
▁annual
▁Everyone
unction
▁mostly
abor
▁abroad
▁analys
▁parameters
▁Shanghai
▁mig
▁tox
▁victims
▁George
▁depart
icians
wide
▁lots
▁Bel
▁overall
▁guests
add
▁Ben
▁satisf
We
▁manufacturing
▁Mark
▁Bab
▁equal
▁effectively
▁Aut
▁imper
▁defense
erry
▁scr
▁bread
▁storage
▁legis
▁heaven
▁......
▁ves
part
▁moral
och
▁ocean
▁joy
▁liked
▁risks
ghan
▁syn
▁cutting
▁observe
reak
▁tall
▁stuck
▁Through
iance
roph
▁Sw
stairs
▁collection
▁salt
▁beach
▁dreams
▁component
▁Develop
▁guide
▁dipl
▁IT
▁recommend
▁Mod
raq
▁presence
▁compens
onic
▁System
amin
▁tank
▁cheap
▁tor
▁Also
▁finance
▁sale
▁losing
▁UN
▁orders
rome
gage
▁published
▁explos
▁teeth
▁happiness
▁Michael
▁subs
▁external
alian
itors
▁visual
athy
▁Lu
▁determination
▁habit
▁vib
rep
▁turning
▁theoret
▁violence
▁library
▁prec
▁delay
▁formation
known
▁collea
ek
▁pil
▁stable
▁Study
▁OF
▁rural
▁inse
ket
▁mood
▁grew
▁promised
▁conflict
▁Mary
rain
▁talks
▁grown
▁painting
rian
▁breath
▁buying
▁Republic
odes
ext
▁jail
onday
▁wheel
uated
▁Val
▁Iraq
▁dele
raction
▁neither
encies
ployment
bor
mes
▁stom
▁assemb
▁citizens
▁keeps
▁principles
den
▁surprised
raw
▁electronic
uary
▁beer
cipl
▁fro
▁falling
▁_
▁alarm
▁differences
▁21
▁nations
▁released
▁pieces
▁district
▁sleeping
▁reduced
▁objects
▁showing
▁upset
▁highest
▁conscious
▁lung
▁Instead
ERN
▁Stand
▁slowly
▁ax
▁sed
▁hoping
▁upd
▁adapt
▁contrast
ocy
▁shad
▁complicated
▁valu
▁instance
▁currently
▁proved
▁suggests
oices
▁magaz
▁England
▁ended
▁plenty
▁Add
▁province
riger
▁blame
▁dying
▁bottle
▁hardly
agement
▁seconds
▁consumer
▁fant
▁legs
▁eggs
▁appearance
▁youth
▁historical
▁desire
▁introduces
▁profit
▁Whe
▁tiny
AC
▁odd
▁nit
▁devices
akistan
▁obst
▁Western
▁unlike
▁nurs
▁affected
▁Use
▁border
asant
▁height
▁immun
▁executive
▁manner
▁ham
▁mathem
▁launch
▁remote
▁excess
▁Party
▁House
▁tells
entially
▁Earth
▁Dem
▁southern
aret
▁convention
mail
isted
▁simulation
▁acting
▁2008
▁professor
race
▁pill
gl
isher
▁refer
▁enhance
▁owners
▁dogs
▁sustain
▁acute
▁documents
▁giant
▁sources
▁initi
hered
host
inding
▁marketing
▁channel
▁pleasure
▁suggested
icial
▁Kong
▁faces
▁truly
▁Washington
▁listening
▁streets
▁config
inet
▁General
▁kidding
▁Americans
▁suitable
▁continu
▁examination
▁Air
▁intelligence
▁literature
▁narrow
▁roof
▁decades
▁experien
▁typical
▁announced
▁absolutely
▁Jim
▁everywhere
▁Open
▁runs
▁conver
▁creating
▁gang
▁Techn
▁cream
▁silver
▁hook
ford
▁decisions
uster
leep
ye
rit
▁brings
well
▁fired
▁closer
▁russ
▁oblig
miss
▁suppl
▁remove
▁cards
▁units
▁Article
VE
▁lake
▁implementation
▁drunk
▁ped
▁guid
andom
▁processes
▁gate
▁heads
▁indeed
▁trading
▁signed
▁coat
nam
▁divor
▁vessel
▁evolution
▁wid
▁discussion
▁ticket
gies
aded
▁IN
▁managed
▁Hum
▁placed
▁util
▁exhib
▁experimental
iat
▁birds
▁desert
▁Mex
▁Joe
▁acceler
▁flying
▁experts
▁aband
▁leadership
▁graph
bal
isation
▁span
▁selection
icity
isters
▁volume
icy
elf
▁WEST
ruption
▁recognize
▁notes
rene
▁wa
▁paying
▁breast
essed
▁attend
zil
mar
▁rig
▁alcohol
▁photos
▁beijing
▁religious
tic
▁WESTERN
▁je
▁scheme
etime
▁dump
▁flower
▁economies
▁shr
▁bathroom
iscal
▁crop
▁Je
▁stret
▁repair
orous
urb
urity
OW
▁sod
ns
▁guarantee
▁Mad
▁vast
▁delivery
▁improvement
▁majority
▁strike
▁Fuck
▁negoti
▁starts
▁Without
acle
▁doctors
▁loud
▁via
▁kil
▁shopping
▁disappoint
▁sample
▁Es
▁attitude
hand
▁Four
▁airport
mitted
EC
ygen
▁laugh
oty
heng
ago
▁union
▁Next
ilty
▁Paris
▁Iran
AP
▁Sund
hi
▁bul
▁businesses
▁tradition
▁transl
▁satell
aming
▁otherwise
▁simpl
▁chest
▁adopted
▁investigated
▁newspaper
iture
▁atmosphere
iest
▁aspects
rum
car
▁197
▁institution
▁meal
▁switch
▁compound
▁Council
▁carefully
▁stomach
▁admit
▁package
▁circuit
▁succeed
itz
▁Web
▁chicken
▁forth
▁suppose
▁buildings
▁connected
▁mixed
▁adult
▁checked
-2
ato
▁Hy
▁relation
There
▁Britain
▁millions
itute
▁Love
▁Research
ams
▁overse
▁vul
▁humans
▁argument
▁puts
▁despite
▁hill
▁diplom
▁consumers
▁proof
osph
▁Fore
▁leads
▁divers
▁obama
▁greatly
▁belief
▁La
ille
▁San
hus
▁appeal
▁organic
▁gall
ander
▁mentioned
iences
ria
▁#
▁uniform
▁introduce
▁pollution
ints
▁estate
▁audience
agon
▁controlled
▁circumstances
uk
▁fert
alle
▁clients
▁strict
▁dow
▁identify
▁nan
▁facilities
▁lights
▁pit
▁laser
orters
▁fundamental
▁fluid
min
▁performed
▁regions
▁housing
esh
roduct
▁significantly
▁centre
▁sites
▁Russian
▁excuse
▁Sing
▁Meanwhile
▁measurement
▁tape
▁troops
▁antib
▁served
▁figured
iverse
▁ratio
▁concerns
▁taught
▁shell
▁letters
▁increases
rid
▁Anyway
▁attacks
heart
▁reasonable
▁EU
▁angle
▁schol
▁Though
▁english
▁000
▁structures
▁lit
▁Mus
ulating
▁cultiv
▁buddy
▁options
▁hundreds
▁carrying
utation
▁ven
▁mile
▁Watch
▁possibly
▁Count
▁views
▁democracy
▁Sl
wood
▁bother
bel
▁committee
▁fiscal
▁holiday
▁Didn
▁gather
▁closely
▁sensitive
▁claims
state
▁friendly
▁bullet
dule
▁genetic
▁inhib
oir
tenance
▁formal
AD
▁recess
▁possibility
▁tong
▁noticed
▁cycle
▁lip
rogen
▁fiber
▁confident
▁thesis
▁inner
▁offering
▁earthqu
▁cig
▁usual
▁studying
pet
ustralia
▁false
▁shower
▁diet
▁boost
▁attrib
▁perman
▁secure
▁entertain
▁Paul
▁capable
▁2010
▁defe
▁commission
▁loves
▁goals
AL
▁bub
▁defect
▁deeply
▁Move
▁massive
▁Bob
enses
▁charges
▁cos
▁spr
▁instrument
▁sets
erate
▁apolog
▁Effect
▁flav
▁houses
▁powers
▁walls
▁thor
▁Up
▁defend
▁expans
▁elev
hemical
▁planned
▁Arab
▁chrom
▁gal
▁sees
▁fold
▁ordinary
▁crew
rem
▁emerging
fe
▁Results
▁knife
▁Lt
▁calc
▁solar
▁existence
▁journey
▁presents
▁random
▁challenges
▁eld
stood
▁administrative
▁thy
▁accord
ishment
▁behavi
▁rapidly
▁creation
▁household
▁composition
peed
▁dirty
▁depends
▁dram
▁prepare
▁preparation
arrass
irect
▁500
▁proceed
cope
nic
▁concentration
ographic
▁opportunities
▁agents
▁gradually
▁troub
▁hungry
erent
▁laid
▁northern
▁Prof
▁guilty
▁prol
▁ordered
▁intr
▁valuable
▁observed
▁saving
▁classes
▁input
▁tumor
▁entered
▁Olymp
vin
▁unus
▁ends
▁bringing
▁writer
▁sport
▁White
atin
▁intellect
▁hi
▁disaster
▁detection
▁Big
icated
▁Looks
▁debate
▁suffer
uel
▁scan
▁raw
▁transmission
▁pregnant
▁II
▁Isn
▁refriger
erior
apse
▁lovely
▁staying
do
ingly
▁improving
owned
▁flag
▁symptoms
▁vital
▁Check
▁regulations
▁Union
▁muscle
▁windows
▁jew
▁Long
▁rats
▁Del
opl
▁Off
▁Tai
▁technologies
▁dealing
▁accepted
▁River
▁nerve
▁suck
▁hopes
▁measured
izer
▁entirely
▁ghost
clusions
rastructure
▁struggle
▁encourage
▁Korea
▁Ms
▁slightly
▁voc
▁Ass
▁quit
50
▁branch
itative
wr
▁screw
icing
orean
Wh
▁Indian
▁shooting
▁accounts
▁illegal
▁excited
▁monitoring
active
▁rab
▁secretary
▁Indeed
▁grade
lie
▁nom
▁figures
cri
▁aircraft
▁watched
▁Hen
▁divided
itate
▁superior
▁opposition
▁unem
▁strategic
▁Unt
▁european
zing
asks
▁skill
▁victory
▁embarrass
▁talent
▁survive
▁messages
▁christ
▁80
▁papers
▁radiation
▁Time
▁entr
▁Mil
▁analyze
▁universe
▁loose
anging
▁powder
▁innocent
▁cops
▁sacr
▁facing
▁toler
▁passion
uesday
▁Exper
▁Nobody
▁domin
▁coach
uce
▁conclud
▁influen
▁confirm
▁rational
rowave
eline
uct
▁emp
▁spin
▁lux
aneous
▁mechanical
▁stro
▁patterns
▁blank
▁shirt
▁comprehensive
born
▁BEST
▁bunch
▁explan
▁resc
▁lord
▁committed
▁oxygen
ether
▁banking
▁basket
▁Using
▁electron
▁individuals
▁Sunday
▁opposite
▁advantages
▁maintenance
gged
▁stronger
ogue
▁gro
owed
▁Bus
▁colon
▁Anything
▁relationships
▁organizations
▁division
▁IS
▁context
▁consid
▁trib
▁Bring
▁bedroom
▁harder
box
▁py
▁warning
ls
▁Say
▁prose
▁brothers
▁loan
▁fellow
▁smoking
▁alt
▁contents
▁chronic
met
▁buff
▁pharm
pes
ya
▁Elect
▁fourth
You
▁Peter
▁Everybody
▁suffering
▁route
▁Remember
ressive
▁q
aph
▁believes
▁convenient
▁synd
▁pip
▁tube
▁Nor
▁tears
▁schedule
icious
▁homes
▁Water
▁illust
▁Too
▁Egypt
fall
▁fee
▁22
▁categ
▁contem
oted
appy
▁describe
▁invent
▁republic
ette
▁affairs
▁Stre
▁landsc
pal
▁phenomenon
▁convin
▁string
▁Def
▁payment
▁joke
▁laun
▁cock
acific
bye
icate
bits
▁identity
▁button
▁website
▁tort
▁locked
▁Tur
▁split
▁WH
▁rene
oured
▁Sur
▁Harry
▁county
▁removed
▁Besides
▁knowing
▁Law
▁Mer
▁commod
outs
▁zero
▁owner
▁rank
▁mathemat
▁largely
▁ren
▁shares
ghanistan
At
▁objective
inent
▁focused
▁grav
ugust
▁incred
▁drawing
ieve
▁Wow
▁hel
▁precise
▁machines
▁rum
▁indicate
▁ladies
▁pursu
cers
oper
▁cable
▁occurred
With
▁chapter
▁moves
berg
▁shared
lock
▁satisfact
▁Fed
going
quar
haust
▁parking
▁chocol
▁cake
ifts
▁agg
rence
▁museum
▁bon
ded
▁Sen
struction
OS
▁summar
orr
osen
▁leaf
▁achieved
▁experiments
▁interface
▁dish
▁reject
▁Cour
▁structural
▁hadn
ocation
▁retail
▁occasion
▁Ev
▁aer
▁employment
▁mountains
▁providing
▁discipl
▁manif
rary
▁continues
ptember
▁extent
▁Hope
ensions
▁Friday
pril
▁chat
▁tested
▁wash
▁chart
▁reduction
estival
▁gotten
▁theoretical
▁pa
▁chlor
iao
▁lob
▁nic
▁accomp
▁ash
▁unw
▁academic
▁electricity
▁regulation
what
▁democratic
west
▁assume
▁mi
▁competitive
▁Mike
▁downt
▁micros
imentary
▁injection
rat
▁Black
▁perspective
▁uncertain
▁fabric
▁Mal
▁inh
▁Until
▁Commun
▁Life
▁destroyed
▁gay
▁anger
▁ought
▁wondering
▁Were
ka
▁corn
▁cute
▁teams
▁withd
▁<
▁magnetic
▁alternative
▁telephone
▁sending
▁brill
▁depth
▁0.
▁instant
▁treating
▁fo
inating
ishes
jiang
▁teen
▁emotional
▁Sun
▁identified
rect
▁fet
ilateral
▁Cur
▁accurate
eping
rates
LE
▁fer
▁Sub
▁confirmed
oust
ormal
▁congress
organ
▁accum
▁breaking
▁item
▁row
▁invited
▁controls
▁motiv
▁automatic
verty
▁ori
▁Moreover
▁selected
▁procedures
▁scream
▁reputation
rix
▁hidden
▁dece
la
▁poverty
▁unable
▁routine
abet
lar
▁gentlemen
▁movies
omic
▁discover
unte
▁microwave
▁specified
▁dar
▁meth
▁defined
bi
▁Shut
▁desper
Con
▁transp
elled
▁architecture
▁Jan
▁cuts
▁stem
▁score
▁surve
▁daddy
▁arrested
▁Day
pan
▁bust
iac
▁hurry
▁experienced
▁armed
▁accounting
▁pocket
▁solutions
▁cot
▁inev
▁tooth
▁suffered
▁distinct
▁butter
▁Whether
▁personnel
▁juice
rag
▁Rich
▁Alex
▁Applic
▁involve
▁electrical
▁angel
liament
▁infrastructure
▁kong
▁properly
▁cha
▁click
▁finds
▁infect
▁waters
tage
▁joined
hn
▁horiz
▁guns
▁Child
▁2009
▁creative
▁expansion
uts
▁philosophy
▁Conf
▁Econom
▁monetary
▁ME
ologist
▁outl
▁entry
▁burning
▁wise
▁york
▁conducted
▁lesson
▁lift
▁repeated
▁constitution
ca
▁colleagues
isp
bered
▁facts
oster
▁courage
ursday
▁younger
idation
▁vacc
▁mice
▁Leave
level
▁holds
▁answers
iel
▁lone
▁hanging
▁tap
urse
▁taxes
▁satellite
▁trace
anges
▁magazine
How
▁bonds
roat
▁Congress
▁artist
pat
▁cataly
▁Supp
ester
▁bast
aud
stract
▁Thus
rating
▁decor
▁;"
▁substant
▁Bro
▁agricultural
▁completed
▁Start
nie
▁Mm
▁marked
▁remained
▁integration
▁Mart
▁dies
inder
ett
▁regime
▁industries
▁rescue
ails
▁tact
▁perfectly
ificial
▁advent
▁mistakes
▁vehicles
▁ears
▁90
▁Street
▁hong
▁cure
▁award
▁steal
▁owe
osh
▁Design
▁Analysis
▁conce
▁Government
▁bure
▁Somebody
▁crash
▁stands
umber
▁Hotel
▁merely
▁decline
▁ya
▁dil
AM
ras
▁fingers
▁consequences
▁incident
uations
▁dancing
▁Little
▁23
▁mand
▁afric
▁cleaning
▁Serv
▁illness
▁Find
vell
▁samples
omas
▁Er
▁networks
▁ho
▁hiding
▁regret
lands
▁script
▁dressed
urther
▁fortune
▁sentence
▁Being
grad
▁California
▁sheet
▁title
▁maker
▁purs
▁personality
▁bes
▁immig
▁conserv
▁James
▁Monday
▁era
▁shoulder
▁tie
On
you
▁neut
▁passing
▁colour
They
▁Hur
▁containing
▁Despite
▁singing
▁explo
▁deserve
▁forecast
lam
▁photograph
▁possess
▁sole
▁earthquake
▁mini
plant
▁waves
ascular
▁Cam
▁default
▁Satur
▁loyal
pling
▁Development
sor
▁circle
▁Att
▁expressed
▁decade
rich
uten
▁gear
▁recognition
▁pointed
ste
▁crap
▁twenty
▁india
▁Bush
▁relief
▁requirement
▁ath
uge
▁flash
zone
husi
▁refere
heast
lla
ita
oom
hole
▁announce
cknow
▁feas
▁friendship
▁myst
▁deals
▁favour
▁196
father
▁na
anta
▁butt
▁pipe
▁hardware
▁aside
▁causing
▁subsid
gly
▁Having
▁council
▁exhaust
▁ST
▁Dec
▁plus
▁demands
▁maximum
▁bacteria
pass
▁prompt
▁membr
▁stayed
▁intellectual
▁acts
IG
ician
abilities
ida
bar
▁AS
mony
▁argue
▁mirror
▁tongue
grade
▁CT
▁insect
▁Mother
case
▁plain
▁reward
▁nearby
▁virtual
▁PC
▁issued
▁immediate
▁threw
▁bid
hang
▁neighborhood
▁officers
▁asleep
After
▁revealed
▁blog
▁density
▁computers
iven
▁fulf
▁loans
org
▁enthusi
ona
▁exists
▁Call
▁BE
▁remem
▁stole
▁forgive
▁badly
▁gap
▁biological
▁diamond
▁certific
stone
▁sake
▁Nations
▁defic
▁DNA
▁gran
▁Pet
▁surge
▁barely
▁discusses
nesday
▁sufficient
▁farmers
▁70
market
▁org
▁doors
▁fallen
coming
making
▁profession
▁cro
▁Especially
▁detailed
▁resolution
▁chosen
speed
▁conclusion
▁disappear
▁linked
asp
▁Ken
▁topic
▁secondary
▁shel
▁politicians
▁volunte
ulus
▁romantic
▁Holl
▁chocolate
▁fishing
▁profile
▁Loc
erk
▁tip
▁keys
▁producing
sey
▁refused
ibilities
▁integrated
issions
▁godd
▁prosper
roid
▁delight
▁sup
ari
▁!"
▁Committee
IM
OD
▁complain
▁asc
▁surf
▁minimum
▁chairman
▁cham
▁Group
▁blast
▁association
▁auto
pected
▁Mount
▁Cr
▁asset
jo
view
▁32
▁assistance
▁reducing
▁apparently
▁inqu
▁sulf
▁unusual
▁depression
▁invention
▁perf
▁educational
▁cigaret
bral
▁thread
▁Di
▁begins
▁filter
▁golden
▁losses
▁Department
▁PL
▁definition
▁Had
▁camer
▁drinks
▁acknow
▁suicide
▁Sar
▁Run
▁fans
▁winning
orph
▁Old
imately
ensional
▁gast
osa
▁tear
▁compare
sen
▁Fig
▁frequently
▁experiences
essor
▁brilliant
▁Jane
▁Free
stream
▁approval
▁Jew
aren
▁vel
▁purchase
▁Pri
▁assessment
▁dude
eds
▁eastern
▁struck
ifies
▁grain
▁transition
▁lect
▁buried
▁helpful
▁Saturday
▁Ber
▁reliable
▁swimming
▁Asian
▁recession
▁unex
▁wisdom
▁Bea
▁manip
▁grace
▁march
▁valve
▁Province
▁draft
▁vulner
▁ON
▁attached
▁shadow
xture
▁marks
▁Jud
▁vice
itter
▁crucial
▁understood
▁equival
▁criticism
▁School
▁seeking
▁managers
▁printing
vis
enger
▁launched
allel
▁Lar
▁permanent
▁intended
▁pages
▁examples
▁inher
▁belt
▁Port
DP
▁African
▁engaged
▁Spe
orders
▁deposit
▁calculation
cto
▁dynam
▁ske
▁2007
▁whis
▁toile
▁overl
▁syndrome
▁Central
▁transportation
rape
▁dare
free
▁sched
▁detective
▁explained
▁intention
▁supplies
▁difficulty
▁Dyn
▁pushed
▁accuracy
▁advertising
olen
▁incor
▁craft
AY
icked
▁piss
▁falls
▁genes
▁crying
ola
▁proposal
ads
▁Wang
▁resid
▁license
▁cheer
▁mouse
▁distingu
▁extensive
▁transformation
ena
▁Step
▁mas
▁dischar
uction
▁mart
▁uncom
▁Imp
▁1.
▁linear
▁adding
auc
LD
▁vacation
▁reserv
war
▁desp
▁gri
▁divorce
Ch
▁vert
ealous
word
▁pants
illa
▁Indust
▁religion
▁foods
▁commitment
▁overseas
everal
▁cav
▁Sil
▁landscape
▁israel
▁labour
▁discl
▁vig
▁criter
▁compensation
▁Again
igned
▁exit
▁Mexico
▁describes
usal
ivered
▁degrees
olved
ymph
▁trigger
inter
soft
▁tasks
▁idiot
yan
iler
▁ment
▁persu
▁interpret
▁ate
▁steam
▁british
▁Inn
▁priority
urally
amine
▁explanation
▁induced
▁vag
▁lamp
▁stake
▁continuous
▁description
ctober
▁concert
▁liberal
▁exposed
related
▁exceed
▁emphas
▁Ty
▁ridic
▁cycl
▁Forget
▁Rob
▁spell
▁framework
▁fate
▁comparison
arsh
▁tickets
▁royal
▁Grand
▁Middle
▁bol
▁formula
▁reviewed
▁Mac
▁persons
▁inspection
inton
▁intra
▁accused
▁agriculture
angers
▁traum
▁cotton
fortunately
▁Baby
▁enorm
▁prospect
▁Bill
▁recover
ometer
▁profits
▁newly
▁headed
stit
Al
ipt
▁Invest
▁tone
▁Secret
▁recru
▁clothing
▁candidate
inch
▁jun
onel
▁thorough
inger
▁neur
uilding
▁soldier
▁heading
▁aggress
▁letting
EM
▁bless
▁driven
▁aspect
▁cub
▁chose
▁moist
▁programme
▁elder
▁theories
▁sequence
▁indicated
▁abund
▁Dist
▁bail
▁yuan
▁Tea
▁ip
▁london
▁emotion
reprene
▁attractive
icago
▁returns
▁establishment
▁plug
▁advis
▁conventional
▁turb
iability
viet
▁contest
▁exposure
▁manifest
asma
▁Italy
▁warned
▁session
▁phosph
▁fright
▁strain
zed
▁subjects
orney
▁basically
▁logic
▁native
chron
▁immune
▁songs
▁raising
▁Sol
▁facility
▁cheese
▁fake
▁quantity
apy
▁supported
▁automatically
▁translation
ki
▁Sit
▁Main
oxide
▁domain
▁temporary
▁refrigerator
▁practices
▁findings
class
▁Want
col
▁Christian
▁bio
▁Dar
ums
▁Best
hyd
▁tent
▁pace
▁survival
▁somehow
▁successfully
▁optical
▁symp
▁respectively
▁judgment
▁Prot
▁unre
▁Six
mate
▁listed
▁reserve
▁childhood
▁memor
▁economics
▁unemployment
▁spa
▁+
▁shame
estin
▁hors
▁drawn
▁strategies
▁300
▁rocks
▁Prob
▁Da
▁lonely
▁spokes
edy
▁measuring
▁comprom
▁japanese
▁disorder
▁Green
▁drove
▁Center
ota
▁irr
▁exciting
oning
▁stamp
▁Business
▁Bas
▁Abs
▁normally
▁Women
▁scope
utch
▁assembly
▁crystal
▁prevention
duc
▁targets
▁Mult
conscious
▁assistant
holders
▁brave
▁weld
▁residents
burg
▁tower
▁tu
▁copper
RI
icks
▁equity
▁operate
▁ll
▁revenue
▁silence
▁horm
elly
▁Exp
▁memories
lets
▁tai
▁asia
actions
▁rubber
cription
▁functional
▁Met
power
▁spark
clusive
▁charged
▁sword
▁outcome
▁mud
▁collapse
So
▁occurs
▁45
▁Mel
▁fever
▁mutual
▁represents
▁sustainable
eting
▁thermal
▁difficulties
▁ships
▁ye
▁yog
▁films
▁furniture
uled
▁ceremony
▁noted
▁bearing
ayer
20
▁bones
▁corruption
oral
▁stolen
▁insp
▁considering
▁Wall
▁intense
▁wra
However
▁les
▁ease
▁spare
▁territory
mic
▁principal
copic
agger
▁interf
▁Security
▁artificial
▁spiritual
▁Phil
gers
UT
▁cous
▁colors
gence
▁constantly
▁Italian
▁rush
▁enzy
oding
▁tab
▁cogn
▁swit
▁reforms
▁Pakistan
rations
▁sovere
▁worker
▁weakness
ashing
inery
▁Sounds
▁mining
▁chop
▁faced
▁Canada
nis
▁35
▁Several
▁recognized
ini
▁Set
run
▁Jer
▁Trust
▁Micro
▁radical
▁upstairs
▁caps
▁Mo
iece
▁Must
▁panel
▁languages
▁Lou
ommod
itarian
▁beam
rants
▁checking
hua
inations
▁unlikely
▁arrive
▁signals
CD
▁advoc
rav
▁fracture
▁Guang
▁beds
▁gym
▁Wal
pring
▁korea
▁Better
▁Ins
▁adj
EL
▁Hmm
▁rod
▁Damn
▁unto
▁particles
▁Taiwan
▁throat
▁typically
▁john
▁google
▁positions
▁soup
▁cooking
▁chances
▁ster
▁steady
▁editor
▁corresponding
▁Que
▁reck
▁Human
▁limits
esty
▁sweat
▁Further
▁highlight
▁begun
▁unknown
▁THAT
▁jet
▁stores
▁trained
▁bite
▁Sea
orted
▁Company
▁visitors
▁Organ
▁morph
▁26
▁consists
▁AND
esome
▁burned
▁Welcome
▁Brazil
▁Ham
▁astron
▁carcin
▁CD
bage
▁Work
urd
uke
▁Jo
▁Huh
▁substance
▁Wr
▁Henry
She
▁sheep
▁wheat
▁violent
▁Form
▁pink
hent
▁Adm
▁blocks
▁interaction
▁lips
▁wireless
▁2000
▁bike
▁enforce
▁persist
▁entreprene
▁sha
▁frust
ba
▁burst
▁oppon
▁protocol
▁technological
icular
▁approved
▁Unfortunately
▁enemies
▁surprising
▁dating
▁extended
▁accordance
▁Lear
▁meetings
anes
▁Test
aire
makers
▁duck
▁combat
▁synthesis
▁Cut
▁clar
▁delivered
ograp
▁boom
azz
▁hal
▁extraction
▁lied
▁Net
▁penal
▁heavily
▁Application
see
▁28
▁worldwide
▁modified
▁email
▁bleeding
▁psychological
▁intervention
mun
asures
▁legit
▁affair
▁Offic
▁William
itud
▁cir
▁scholars
▁unh
Res
▁Roman
▁parameter
▁SH
▁underground
▁Australia
▁27
ibet
▁entrance
anch
▁metab
▁belongs
▁molecular
▁apologize
ications
▁Bur
vember
▁Always
▁consciousness
esis
▁insist
▁wing
▁attacked
▁allowing
▁Five
▁marine
teen
▁tag
aying
▁agencies
▁recall
▁Cle
▁Greek
bra
▁arts
▁cord
▁temple
▁retire
▁mineral
▁Budd
▁Cop
ifferent
▁sty
▁sharing
▁introduction
▁epid
▁accommod
▁Atl
▁curve
▁hired
▁DO
▁exports
utenant
▁protest
▁employee
▁observation
angle
▁valley
▁Super
▁rib
rous
▁fasc
apore
rey
▁laboratory
▁Non
▁classic
▁interrupt
An
▁phones
▁Dude
▁chip
▁hydrogen
▁bom
▁harmon
hors
▁toilet
▁Probably
rive
▁Light
▁lessons
▁indicates
▁mos
▁adopt
▁sail
wered
▁None
▁silent
▁choices
▁tourism
▁fears
▁regarded
▁guidance
▁breathing
berry
▁deleg
▁impression
▁configuration
▁Doesn
▁pilot
▁legislation
▁clever
▁Ret
etric
▁Mat
uting
▁Small
▁grave
▁Bye
▁Son
▁burden
▁trem
▁stabil
▁Charlie
igen
▁ugly
▁exception
▁mate
ifice
▁parliament
ville
yr
▁parallel
ifier
▁jealous
▁intelligent
▁equivalent
▁disappeared
▁Vict
▁ingred
▁Show
▁schem
▁warrant
ML
▁bene
▁freak
▁Rome
▁amounts
mother
▁lymph
▁handling
▁spray
▁vegetables
▁savings
▁representative
▁ID
▁disg
▁resulting
▁ware
▁thou
▁voltage
made
▁aest
▁dict
▁eu
▁arbit
agen
▁Sus
▁trop
irm
▁outs
▁AT
ywood
▁controlling
allow
▁precision
▁independence
▁Scient
30
▁identification
ga
▁abn
▁owned
▁spoken
▁bug
kel
▁rely
▁previously
▁pounds
BI
iders
gging
▁naked
emic
▁alumin
▁hearts
▁nutr
▁exerc
hal
agers
▁soph
▁Class
▁Hang
▁silk
▁commonly
▁Father
▁Span
▁Follow
▁Yang
▁minds
▁discovery
▁Almost
▁matrix
▁decrease
▁variable
▁consistent
▁CO
▁Guys
▁mechanisms
▁extraord
geles
▁gray
fit
▁Men
▁tempt
▁elsewhere
▁Commission
▁fertil
▁universal
▁format
▁Ext
ogy
▁AC
cium
▁seal
▁numerous
▁overcome
▁rolling
▁Health
▁ber
▁damaged
▁dumb
▁menu
ano
▁Bu
▁fought
▁attorney
▁nuts
▁babies
▁precious
▁jacket
▁equation
▁separation
erable
▁promotion
▁theme
inity
▁Gold
▁Smith
▁label
▁composed
PS
oked
Ob
zzy
▁luxury
▁visible
obile
▁convinced
▁scenar
imp
▁flexible
▁secrets
▁profound
▁productivity
requ
▁robot
▁enjoyed
▁Special
▁crimes
▁forming
iner
▁bags
▁Among
▁murdered
uum
▁pushing
abetes
▁Whoa
▁pref
▁sodium
▁distributed
▁rhy
▁recorded
ierce
▁sons
▁tension
▁hack
top
▁tied
▁holy
door
HT
▁clouds
▁membrane
aine
▁que
ancis
roduction
ali
▁nursing
▁lean
▁fifth
▁Except
▁glasses
ERE
▁Rad
▁mild
▁venture
▁involves
icted
efficient
▁links
umes
▁los
▁Minister
▁rect
engers
▁essence
ION
▁universities
▁shout
athered
ogether
claim
▁threatened
▁enormous
▁taiwan
▁Max
▁replaced
▁peak
▁parad
▁nurse
▁generate
▁battery
▁golf
▁ov
ador
▁ink
eaks
▁sac
▁hire
▁remaining
iary
▁Mem
▁articles
▁eleg
▁woods
▁math
omer
unct
herent
▁pride
▁transf
▁polar
▁voters
▁leather
▁broadcast
▁Jul
oline
▁derived
▁presidential
▁waited
▁Swe
aze
abled
▁stroke
brid
▁ion
▁prize
▁securities
▁naturally
▁2011
▁Wed
▁Honey
▁Real
▁analyses
▁nights
▁ray
▁strongly
▁delicious
▁prince
viously
▁Tuesday
vant
▁ric
▁spat
▁acquis
rick
▁defeat
▁darkness
▁anc
▁pretend
▁alb
▁Clear
▁rarely
onym
▁repeat
▁refuge
▁consol
▁dozen
▁stocks
▁slip
▁reveal
▁June
▁warn
▁adults
▁discount
▁kingdom
ocity
ologists
▁semi
▁celebrate
▁permission
▁bloody
zo
osity
▁cher
▁Children
▁transaction
▁controvers
▁fairly
▁Boy
▁Sal
▁inspir
▁awful
▁urgent
▁writ
▁yard
▁aller
▁transplant
▁stir
▁destruction
▁supporting
▁Ha
illance
▁grid
▁comments
▁pleased
▁Master
▁authors
▁mold
▁protecting
▁Lad
▁disag
▁Mill
▁tack
.1
▁March
▁surrounding
▁AP
▁produces
▁Ca
▁Carl
▁organs
▁ans
lessly
▁constra
▁download
bery
asts
erer
peror
▁mayor
itals
kyo
▁swing
▁undert
utic
▁settlement
▁instruments
▁analyzes
By
▁contemporary
▁haz
▁russia
ancing
▁reverse
▁inject
▁registered
▁wings
aste
▁meters
▁behaviour
▁2006
▁unexpected
▁nowhere
ener
St
▁Sum
▁elections
sters
▁flour
copy
life
▁extend
▁FOR
▁collected
▁resident
riers
▁incent
ometry
▁Unless
▁Star
▁appointment
▁bold
▁tunnel
boy
▁statistics
▁injured
weight
▁nucle
rot
▁Third
▁proportion
▁Found
▁cyl
▁bron
conn
▁Hon
win
▁purposes
erning
ologic
▁effectiveness
▁certificate
▁sla
▁hed
▁settled
ipher
▁forb
▁Control
▁moments
oids
oric
▁airl
▁cann
ora
▁explains
entions
▁french
ado
▁tech
▁propag
▁visiting
▁whenever
otherapy
▁outstanding
▁investments
▁PR
▁shield
▁Greece
▁surely
▁follows
▁2005
▁flesh
▁leak
antly
▁railway
crib
▁authent
IR
▁forgotten
▁touched
▁Kn
▁Pass
▁efficacy
va
izz
mal
ostic
▁governor
▁peaceful
▁remarkable
▁ampl
▁hug
▁expecting
▁legend
▁missile
ups
▁alert
▁britain
▁deficit
enda
▁tries
▁civilization
ema
▁claimed
▁confused
▁Captain
▁Ever
stein
▁knee
osy
▁Associ
▁orange
acco
▁invite
▁Lee
▁picking
▁Ref
▁contrad
▁Apparently
▁situations
▁AB
▁tracking
▁phr
scale
▁polymer
▁folks
▁Gar
▁alk
▁betray
▁bastard
▁sensor
LC
▁communications
▁outer
▁emissions
▁negotiations
aws
▁myth
elines
terior
▁ridiculous
▁hoped
moking
▁horn
▁handed
▁jumped
▁classroom
▁absence
▁Bay
▁mixture
▁visited
▁roads
▁toxic
▁stored
but
▁Lo
▁seats
▁shake
vention
▁Hard
▁actor
lu
ican
itivity
▁clinic
called
▁devil
▁eager
▁handsome
xiety
▁reservoir
▁capability
▁Nick
▁surg
pled
▁slept
▁somewhat
▁dismiss
cript
▁silly
udge
▁horses
▁Tal
▁refuse
▁partnership
▁Tony
sell
▁Aw
▁artery
▁myster
▁everyday
▁define
▁Ten
ugg
▁drain
uine
▁casual
▁necessarily
kind
▁adjustment
▁*
onia
mates
ourse
▁cameras
▁funeral
▁Robert
▁Treat
▁beings
▁partly
▁heating
▁mystery
pa
van
▁arranged
rium
inals
▁declared
bru
▁Yep
mia
▁creates
ulum
▁decent
▁bump
MS
▁generated
▁boring
▁protected
▁helic
▁bubble
▁withdraw
▁funding
aq
▁aimed
▁explosion
iano
▁cust
▁radi
▁folk
ateful
▁Social
▁Lib
▁plot
▁personally
▁expectations
▁coinc
▁enable
▁preparing
▁Pop
IV
acks
▁painful
▁wore
▁carrier
neum
▁bitter
aneously
▁facil
away
linear
▁Google
whel
▁breathe
▁compounds
▁receiving
▁prote
apes
▁analyzing
▁calculated
illary
▁Aim
▁buck
▁scat
▁Id
▁vary
▁consideration
▁abandoned
anol
▁Educ
▁gained
▁sooner
▁pulse
smoking
isms
▁Ooh
▁cement
▁~
▁serum
ulin
nan
▁therape
▁vulnerable
11
▁Spain
▁seeds
plete
▁punishment
IA
▁frag
▁regarding
flow
▁ultimate
▁answered
▁capture
▁Down
▁closing
▁pled
erving
▁vertical
▁Hist
aria
▁Pret
▁gree
▁orth
▁jury
▁organized
▁mit
adays
▁Afghanistan
▁194
▁attach
▁athlet
▁neighbors
ials
▁Fam
▁hunting
▁Olympic
▁campus
▁Los
▁adequ
▁pulling
▁rival
▁stiff
▁oral
▁Bad
▁pir
▁correlation
enly
ommy
▁highway
▁Ready
▁ethnic
atus
itty
ifer
▁installed
▁examine
▁alien
▁ecological
▁HA
ethyl
Method
ube
▁lately
itan
raul
▁surveillance
▁mortgage
▁pron
▁merch
▁programming
▁wel
orient
▁ok
▁absolute
▁candidates
astern
▁customs
▁Ir
▁Aren
▁Anyone
▁holes
▁islands
▁abuse
▁sandw
▁physics
irts
▁ignore
yang
▁mum
▁awesome
▁array
oded
▁reserves
▁briefly
▁Str
▁trap
▁recept
▁publish
▁Thursday
▁Tomorrow
▁cloth
▁grant
▁harvest
▁diabetes
idity
▁crops
▁ultimately
tr
fol
▁reliability
▁treasure
▁nas
▁chamber
▁HE
acles
▁kidna
▁penet
▁ancest
acent
▁scand
▁dispute
▁channels
▁shoe
▁dent
▁balls
▁lap
▁isolated
▁genuine
uing
▁Leg
▁category
▁Den
proof
▁courses
▁Soon
▁attempts
▁Hurry
omin
▁inflamm
▁installation
▁Spanish
▁applying
▁deeper
▁tendency
▁UK
▁serving
▁utility
ifting
▁ech
▁toy
▁WE
Objective
▁spectrum
▁Tem
▁Break
▁discre
▁partial
▁intensity
▁contribute
▁Know
▁epis
▁admitted
sm
▁Fu
▁approxim
▁irre
plate
▁quot
mat
▁nail
zzle
orrh
quarters
▁searching
▁Much
erring
▁kidney
bruary
▁arrangement
▁extension
▁loving
▁nod
▁squee
▁resolve
▁Otherwise
▁Qing
ogenic
▁optimization
▁ties
uties
▁fewer
▁neuro
▁lend
lly
▁pleasant
▁August
▁germany
▁desperate
▁Rest
▁solved
▁Service
▁jan
▁pile
▁vacuum
▁discipline
▁plasma
▁Roy
▁simult
onal
▁promoting
▁entertainment
idal
▁sof
▁shots
▁dys
▁hes
▁execution
oves
ifications
▁jur
uality
▁basketball
▁bars
itar
▁referred
▁communicate
▁horrible
▁insert
▁contained
▁analysts
▁instruct
▁Power
▁digest
▁straw
▁jam
▁Care
▁CH
▁homework
ulsion
▁Shall
▁overwhel
▁Apple
▁lifetime
arn
▁ruling
▁Tex
▁dirt
▁darling
▁fraud
▁Est
▁recommended
▁Dick
▁Muslim
▁deliber
▁concerning
ilation
aza
▁brush
▁Tim
▁por
▁monster
▁designs
▁Wu
▁financing
▁instinct
▁contracts
cure
▁alle
▁composite
eling
▁Way
agnetic
▁Pan
▁frozen
▁sought
▁communities
▁tob
▁Road
▁helicop
▁segment
▁supervision
▁provin
10
▁institute
with
▁spy
▁mature
▁conservative
▁rh
▁mun
▁ending
▁tables
▁reflects
wear
▁static
▁contribution
ounded
▁eliminate
▁affects
▁equally
▁fantastic
▁stages
▁thee
▁curious
▁Expl
▁disk
igue
▁discrim
apor
▁winner
▁breaks
▁pregnancy
▁aunt
▁bills
▁downtown
▁interior
▁imaging
▁Ell
▁Mag
bles
rine
▁suite
▁vibration
▁drew
▁terrorist
▁tv
▁washington
▁suggestions
▁anticip
▁anxiety
▁psychology
▁Doctor
▁legisl
atal
▁Tre
▁Given
▁Chicago
geant
▁surgical
▁centuries
ih
▁Disc
▁fancy
▁salary
▁ownership
mers
▁cer
▁Pacific
▁bush
▁etern
▁cousin
▁genius
▁stations
rob
▁1990
▁achievement
▁deriv
▁gentleman
▁tang
▁tempor
▁remembered
▁Agent
▁dose
▁arrival
▁July
▁detected
iana
itical
▁managing
imental
▁palace
▁End
▁Police
▁protective
uced
▁Han
lfare
▁membership
▁Spec
▁stab
▁Lin
uci
iated
▁Thought
▁frank
▁commodity
▁mamm
▁Chief
▁ages
▁lun
▁separated
fish
vol
▁passage
▁approaches
▁volcan
▁SO
▁theat
▁passengers
▁kilomet
▁chemistry
▁asks
▁pursue
teries
olly
▁preced
▁movements
struct
▁readers
▁ministry
▁extraordinary
change
▁sink
▁errors
▁covering
▁Lake
▁Alright
▁destination
▁Rock
▁climb
ographer
iological
▁registration
raulic
▁Looking
ctic
▁travell
isy
lectric
▁dragon
pread
▁grandfather
ocrats
▁shanghai
iber
▁ah
▁bowl
▁Either
▁concepts
▁Fire
▁lawyers
▁equipped
iar
sea
▁counsel
▁vamp
py
▁incredible
▁punch
ifted
▁instructions
▁branches
▁Court
▁Clin
▁Brown
▁poetry
▁participate
▁ore
▁aspir
ogram
▁priest
▁oneself
▁optimal
▁laughing
▁April
▁designing
▁Ton
▁terminal
▁riding
▁Hit
▁estimate
▁latter
▁perce
▁thrown
▁mama
▁module
▁signature
▁warming
▁executives
.2
▁resin
▁calcium
▁subsequ
▁classical
▁Av
▁dawn
ressing
▁compass
▁graduate
▁flows
▁unn
▁hunt
▁agenda
▁inevitable
▁macro
▁humanity
▁register
eem
▁cruel
▁assault
EA
opt
▁tennis
▁Hand
▁marg
▁ruin
▁hello
▁departments
ycl
▁goddamn
▁characterized
break
▁blew
▁fruits
▁Plan
idespread
▁implemented
eps
sem
▁literary
▁statements
▁beneath
▁carcinoma
▁imagination
▁traveling
▁nest
care
vard
▁privile
▁velocity
shit
tail
▁elected
▁roots
ecess
▁corporation
▁Sign
▁Fred
entation
▁gods
▁accompan
▁princess
▁Foreign
▁beside
▁pond
▁percentage
▁defence
otype
▁cave
▁corp
▁Vir
▁Chapter
▁apparent
▁rope
▁beef
▁brains
▁therapeutic
▁Haw
▁pitch
▁September
▁sophistic
▁potentially
ENT
▁Pot
▁africa
▁lecture
rack
fire
▁tel
▁Things
▁injuries
ensus
iology
atively
▁demonstrated
ontal
▁weigh
▁Korean
▁granted
▁entering
▁Ltd
▁bankrupt
acked
▁impressive
▁employed
▁container
▁aggressive
anium
▁dramatic
oston
▁connections
actly
▁fees
▁renew
▁Charles
▁Kim
▁revers
▁generous
imal
▁governance
ouch
ective
▁provisions
▁grows
▁Certain
▁gifts
▁habits
▁muscles
▁batt
▁infected
▁Pull
ucky
▁feeding
▁scientist
▁Flor
▁vessels
▁pale
▁disturb
▁cooling
▁magnet
▁Ask
▁wishes
▁crown
▁Management
▁bench
▁estimated
▁regularly
cia
▁36
▁ms
▁gest
▁update
enth
ouring
▁gathered
oval
▁Wil
ella
▁privacy
andy
▁cad
opher
▁tender
▁emotions
▁oh
ployed
▁Tru
▁whoever
atural
ietnam
▁eaten
▁bucks
▁packed
▁chemicals
rics
▁autumn
▁behalf
▁trends
that
▁Enter
▁appet
▁hybrid
▁boxes
▁Institute
lers
▁radar
▁thief
▁considerable
▁feedback
▁GO
istical
▁DC
olar
▁engineer
▁expenses
▁alter
▁midnight
▁relating
ometric
▁satisfied
▁garage
▁compete
▁anx
▁manual
▁retrie
▁gly
▁Sarah
▁coating
▁satisfaction
▁recording
▁annoy
▁bye
▁nap
▁coverage
▁gross
ias
▁advertise
▁widespread
▁29
▁offices
mond
▁adhes
▁Others
▁instruction
▁iran
▁gains
▁College
▁Later
▁knocked
▁bride
Conclusion
▁troubles
▁Professor
▁complimentary
she
▁integrity
▁Ann
▁Ray
▁Vis
ptic
▁Person
▁snake
▁sacrifice
▁embry
working
▁tobacco
long
kins
▁Prom
▁Ta
▁Oper
▁trail
▁incorpor
▁checks
▁quantitative
law
agram
▁disagree
▁absorption
▁machinery
reck
▁hob
▁Kind
▁Clark
▁Victor
izza
sing
▁drama
▁Absolutely
▁taxi
▁reporting
▁Glob
▁Home
▁engage
▁shore
▁Technology
▁Cult
▁exploration
ucker
▁reflection
▁KN
▁welfare
▁sincere
▁abdom
▁surre
▁gig
▁vic
▁restaurants
cluding
▁declined
▁volat
mentation
▁Far
▁NOT
▁2012
▁correctly
athan
▁strip
▁rust
ivals
aching
nament
▁Enjoy
▁cin
▁conqu
▁stepped
▁festival
asury
occ
print
▁soy
▁wolf
▁Neither
▁charity
uating
▁CP
▁stimulus
▁cerebral
▁economists
▁suggestion
▁‘
▁Sudd
▁newspapers
▁socialist
▁Young
▁stops
▁encoun
ashes
▁landing
▁Wednesday
▁deck
vy
▁grateful
asive
▁lets
▁HP
ui
puter
▁wars
▁compr
▁dispers
▁participants
net
▁judges
▁incl
▁une
▁mask
monary
▁synchron
▁diplomatic
▁panic
▁scare
▁summit
bow
▁Science
▁crossed
▁collective
▁ours
imeter
▁lion
▁excessive
▁Ba
▁Equ
▁Said
▁jewel
▁collaps
▁barg
eman
▁kicked
bre
▁involving
olism
▁beating
▁designer
through
liance
▁stretch
▁demonstrate
KE
▁musical
chem
▁Wind
cow
▁supports
▁tropical
▁occas
▁Colonel
▁threats
▁dign
▁speaker
▁hypert
▁conj
▁packing
▁serves
▁coron
▁correl
▁2004
▁prospects
▁attracted
▁Congrat
adian
▁carries
▁EC
▁bicy
▁Obviously
▁pupp
▁Exactly
▁wages
▁mathematical
▁Ap
rows
▁entit
▁restore
▁initiative
▁January
▁sweetheart
▁resort
▁abnormal
▁alloy
▁earnings
ura
oosing
▁guards
▁creature
ava
▁rear
▁france
▁refers
▁stranger
Id
▁earned
advant
▁shed
▁variation
dim
atoes
▁aims
zer
bean
adium
▁serial
▁squad
▁captured
▁commander
▁discharge
▁subsc
▁examined
▁poo
ermination
▁foss
▁specifically
press
rolled
▁artistic
itated
▁reh
▁blade
▁grandmother
UR
▁decomp
▁appointed
▁promises
▁primarily
▁traged
▁surrounded
▁anth
▁needle
▁Palestin
▁sna
▁bin
▁waff
▁auton
▁pound
▁deaths
▁mes
▁lands
matic
▁gam
▁assumed
▁convince
▁Ted
▁Information
utor
▁stain
▁hurts
▁creatures
▁insight
xy
▁Richard
▁courts
▁Secretary
▁Stan
theless
▁condem
▁portion
▁historic
▁Marx
▁stun
▁throwing
▁awareness
clock
▁distant
No
▁boundary
▁gel
Methods
▁argued
▁Vol
▁observ
▁neglect
bec
▁mainland
▁Chen
▁conform
▁washing
▁fuzzy
▁galax
▁americans
▁SP
▁Taking
▁manufacturers
▁lover
▁genus
▁returning
no
qing
▁Texas
▁spons
▁assigned
▁assure
▁substantial
▁classification
▁damp
▁County
▁rocket
iry
orious
▁pneum
▁Public
▁Latin
▁patch
▁skull
▁towns
▁payments
ocard
▁filling
abeth
▁shy
▁Shit
▁grat
▁Jeff
IP
▁SC
▁reci
▁patent
▁metall
▁singer
▁woke
▁Angeles
▁accomplish
asting
▁Ladies
▁prohib
eller
▁gamb
▁fierce
▁custody
One
▁adds
▁loop
▁rivers
▁Sweet
▁concluded
avy
oto
▁Shen
▁gut
▁monkey
▁spaces
ione
archy
▁pills
ji
▁Ang
▁eurozone
iser
▁amp
aping
▁shops
▁elderly
▁trapped
▁castle
▁bang
▁tourist
▁imperial
▁numerical
▁accessible
▁nitrogen
▁shipping
▁quietly
opol
▁pap
▁milit
▁shark
shaped
▁Bre
emon
▁virgin
▁charm
▁eleph
▁glory
▁achievements
iped
▁dominant
▁Figure
▁roles
▁founded
aus
▁IC
▁dates
Results
▁candy
▁assass
▁duties
▁kin
▁liability
▁distur
▁spokesman
▁presentation
▁sund
▁passes
OP
▁praise
▁artists
▁lending
▁Sn
olve
▁encl
▁disadvant
▁sar
▁pear
▁Between
▁narr
▁champions
▁disappointed
uates
▁Office
▁screwed
▁aged
Acc
▁ul
▁antibiot
▁keen
▁surpl
▁Chang
▁vaccine
▁influenced
▁MS
▁Talk
def
▁sexy
▁reception
▁denied
▁Hollywood
▁League
▁neutral
▁reflected
▁Pen
▁laund
▁opposed
▁catal
▁corros
▁GDP
▁Blood
▁Steve
▁bored
▁uncertainty
▁infant
▁sauce
▁covers
▁shrink
ductor
inction
▁trauma
▁Eth
yd
inates
▁Fund
▁inex
▁criteria
lyn
▁fung
▁rejected
▁enforcement
▁Congratulations
▁31
▁WAS
▁worn
▁Administ
▁gender
▁logical
▁wand
utical
▁sorts
▁anch
▁champion
▁embed
▁emerged
▁heter
▁rhyth
▁particle
▁Data
isure
▁intest
▁diction
▁distract
▁diversity
▁ol
▁expense
▁directions
▁Food
▁400
▁Mot
▁pup
▁Note
▁reporter
▁tourists
▁decreased
rer
▁Dynasty
▁floating
mma
▁Hun
▁compat
▁peripher
▁circulation
▁cabinet
elve
▁deny
▁gravity
▁craw
▁promising
orse
▁dishes
operative
▁lens
vironment
▁sensitivity
fly
raine
▁replacement
▁generations
▁Scott
kward
▁operator
ila
▁flew
▁ward
▁stones
▁backup
▁loaded
▁lt
▁sear
▁rude
▁dedicated
▁uk
▁sher
▁continuing
ean
▁FBI
▁toast
▁Education
▁respir
▁kinda
▁acquired
▁dual
▁baseball
hell
▁Conn
oriented
▁affection
▁margin
▁speaks
ois
gered
ito
▁Billy
▁roughly
ami
▁insane
▁reconstruction
▁minority
▁dependent
▁junk
▁frequent
▁envelop
▁42
▁citizen
▁painted
iversary
▁warehouse
▁AD
pool
▁Francis
▁reluct
comes
▁represented
▁hits
▁prosperity
▁Soviet
▁Tonight
▁ignor
▁tiger
▁layers
▁impr
▁pursuit
▁theater
▁Association
da
▁overt
▁2003
▁passenger
▁wooden
▁cigarette
▁developers
▁utilization
▁Suddenly
▁cultures
▁ie
▁trash
▁spirits
asters
▁escaped
vable
▁Book
▁Thomas
▁junior
▁resemb
▁regulatory
▁tens
▁deposits
▁reaching
▁rings
ongol
▁flame
▁Full
ocks
▁rabbit
▁plates
▁Wi
▁Martin
▁oste
▁grey
▁garbage
ustralian
▁emphasis
▁literally
▁acquisition
ogene
isk
▁Squ
cular
▁tons
▁hills
▁league
▁scratch
arse
▁hotels
▁shaped
▁Girl
▁congr
▁drivers
▁chap
▁piano
▁Scientists
▁complexity
▁charming
▁Lead
▁originally
▁transferred
▁Santa
▁tin
itudes
▁drill
▁underm
▁modeling
▁impressed
egas
ulpt
▁Ra
▁Aust
mn
▁Mos
▁Half
emia
▁influences
▁treaty
▁servant
▁tremend
IF
▁brut
▁elabor
iral
▁creep
irable
▁german
▁Year
▁tips
▁cares
▁qualified
rin
type
▁retreat
▁curtain
▁pad
ST
▁Daniel
▁grounds
rared
▁wealthy
According
▁Economic
▁Hol
▁probe
▁contam
▁engines
▁Clinical
▁worship
rub
isa
▁Queen
▁adventure
▁Div
▁Jiang
▁modest
▁corrupt
▁sisters
fu
▁sperm
▁Jose
▁encouraged
▁elastic
▁peop
▁NE
▁od
forced
▁walks
▁alleged
rip
mind
▁bor
urable
▁sculpt
▁robust
▁37
▁precisely
▁cluster
▁arguments
OL
▁utter
venue
bour
▁prisoner
▁bru
▁innovative
▁abilities
▁Post
▁petro
▁opinions
▁rac
▁Wood
▁struggling
▁hated
▁scrap
▁sheets
rason
▁delicate
hist
▁stairs
▁thirty
MP
ptions
resist
▁requests
pered
▁Prime
leg
▁awake
▁excite
acking
▁dining
▁Current
▁computing
▁synthetic
oli
▁elegant
▁inch
▁cleared
▁suspected
imb
▁reply
▁arc
▁receipt
▁solving
▁recur
▁stealing
▁intermedi
▁bears
▁interpretation
▁displayed
▁spots
▁devast
▁removal
▁couples
▁temperatures
style
▁fox
▁stere
▁congrat
▁confront
▁empire
▁concentrate
▁Guess
ogenesis
▁Hel
oping
▁IP
arer
▁stub
rained
▁periods
▁knees
▁contrary
IDS
▁2001
▁Ren
▁farmer
▁scheduled
vation
▁Conclusions
▁Engine
▁proteins
▁bay
▁Chuck
izabeth
.3
▁useless
flu
▁Gal
▁cargo
▁KNOW
▁alliance
▁expanding
section
▁aggreg
fortable
▁Dig
▁admire
▁announcement
▁awkward
ima
▁whoa
▁matches
▁ruled
▁brands
▁sophisticated
omed
▁curric
▁printed
▁Win
▁binding
▁Easy
▁poem
▁scenario
asia
yard
sized
▁carb
▁fart
▁prisoners
▁controller
▁boot
▁reson
.00
▁unity
aceutical
▁prelim
▁Jon
▁existed
▁hitting
▁informed
▁staring
▁dialogue
enced
▁exhibition
▁Po
▁worries
▁Zhang
▁Academ
iop
▁Low
▁Dece
▁melt
▁pizza
▁nonlinear
▁dull
▁timing
▁jer
agraph
▁survived
▁dimension
▁Mass
▁Global
▁convert
▁relatives
▁Nan
▁Van
▁humor
▁miracle
▁anniversary
19
▁Custom
▁Getting
▁critics
▁lag
▁shaft
▁resign
▁essentially
▁Rog
▁mall
eges
▁Head
▁Land
▁electrom
cal
▁wanting
▁commerce
worth
▁iraq
▁studio
▁enjoying
▁Local
▁satisfy
▁opens
▁interference
▁affecting
▁Poly
▁mothers
▁abstract
UST
osals
▁seism
▁Tibet
That
thur
▁olymp
▁tragedy
▁analysed
▁factories
▁engagement
oking
▁fond
▁tends
▁enthusiasm
▁proven
▁cough
▁pole
▁disgust
▁foolish
▁basement
ORD
▁bree
▁drives
inge
▁revenge
ochemical
▁trusted
▁Prin
▁Believe
▁sew
▁asshole
▁besides
▁preferred
▁Tot
▁precip
▁Ow
▁hip
ilipp
▁Pretty
▁evident
▁ank
▁wounds
▁Product
▁cattle
▁diagnostic
▁productive
▁leisure
▁supervis
eur
oving
shine
▁guilt
▁constructed
-3
▁duct
▁officially
hong
▁premium
▁Different
▁lowest
▁inspired
▁misunder
eor
▁Ver
▁drum
▁Jac
▁usage
iferation
▁catalyst
▁gluc
▁welding
▁supplement
▁insult
▁disrupt
▁maid
▁poet
▁realistic
▁absorb
▁monthly
▁bun
▁plag
▁prominent
▁convey
▁hydraulic
▁48
itage
▁budd
▁clay
▁lobby
oys
▁ow
igan
ilib
▁Jimmy
▁sovereign
▁downstairs
ccer
▁nutri
▁dioxide
▁acknowled
▁bureauc
▁posted
▁crude
▁Send
apping
▁inhab
▁finite
▁panc
▁Brother
▁Project
▁destiny
▁manufacturer
▁shareholders
hesis
▁ski
▁greet
▁institutional
▁asian
▁gorge
▁neural
▁Happy
▁slide
▁tracks
▁password
uffic
▁toss
bridge
▁shoulders
foot
▁aqu
▁scandal
IGHT
▁lam
ii
▁Scot
▁subt
▁Corpor
play
▁mercy
▁Furthermore
itual
ulator
▁submit
▁facebook
▁Singapore
card
▁Turkey
▁trunk
▁loading
▁elevator
▁waffles
▁headquarters
▁participation
▁suits
▁fisher
▁75
▁hier
▁prost
▁wounded
▁underlying
▁150
▁incon
▁auction
inally
▁hospitals
▁node
▁intend
▁amen
▁performing
▁reass
▁Plus
atholic
▁striking
▁meantime
▁umb
▁propose
▁aesthetic
▁Ron
piece
ignant
▁audio
▁stead
Is
▁lug
▁recovered
▁Read
▁veter
▁classified
▁Whoever
▁resulted
▁inherit
▁scenes
ethe
▁enlar
▁warri
▁Near
▁prosec
▁countryside
▁paintings
acon
▁invis
▁estimates
▁Eve
▁drops
bell
shot
eous
▁ultra
▁moderate
BC
▁votes
▁Island
▁convenience
▁Yan
▁Ven
▁reactions
giving
▁barrel
▁choosing
▁moisture
▁differential
▁calculate
▁notion
emen
▁arom
▁prints
inda
▁allies
oof
▁Inc
▁October
▁witnesses
▁Kar
▁unst
▁Quick
▁intim
osystem
rons
ardon
▁Dire
▁cats
▁thunder
▁Poor
▁invasion
▁laundry
▁expanded
quet
zhen
▁selfish
▁ingredients
▁Press
▁assert
▁emperor
▁1980
▁mysterious
▁preventing
▁feasibility
▁transactions
▁patri
▁buyers
▁vegetable
▁hmm
▁seas
▁Jones
▁revol
▁sorrow
▁engineers
▁harsh
▁stated
▁penalty
▁molecules
ument
ckets
▁aluminum
▁terrorism
▁deputy
▁cognitive
▁complications
arded
▁Play
▁Xin
▁fortun
▁enhanced
▁wage
▁chips
▁Church
▁combine
▁cerv
▁Trying
▁telecom
▁December
opsy
ellow
▁sweetie
▁invented
▁listened
▁Dam
▁Industry
▁horizontal
▁THIS
▁operational
▁judicial
omatic
▁defects
inite
▁proposals
▁interact
▁cort
▁carpet
▁matching
▁mathematics
afe
imony
▁Holy
umbled
▁chaos
▁conflicts
▁spreading
▁reader
ds
lamic
▁settings
▁195
These
ailand
rust
▁Hyd
▁surviv
▁worthy
▁Analy
▁essay
▁facial
▁pakistan
arest
▁arab
▁meter
reshold
stitution
▁developments
▁Nort
lings
▁alike
▁hedge
▁landed
▁dynasty
▁Comb
▁Program
▁chromat
▁migration
▁accompanied
▁odds
▁safely
▁Tang
▁haird
▁aging
▁nutrition
bag
▁washed
bound
▁pays
assador
▁civilian
igate
▁diagram
▁requested
iu
▁Sout
▁orbit
▁shelter
▁Trad
alling
▁lighting
▁silicon
▁dy
▁Cross
▁Spring
▁harmonious
▁winds
assy
▁appar
▁copies
▁ceiling
▁specialized
▁arrangements
▁ts
▁cul
▁enzyme
▁conversion
.4
▁meals
▁necessity
▁Arch
▁devoted
▁qualities
Fi
▁wax
▁nons
▁centers
iper
▁Liu
▁goodbye
▁revolutionary
▁Cub
attle
▁depressed
▁sustained
▁unhappy
▁resistant
atis
ieties
▁specify
chlor
otion
▁Modern
▁abundant
itzer
▁flexibility
▁Jin
estyle
▁accomplished
ritis
▁applicable
▁vitro
▁Same
▁alleg
▁ruined
▁episode
nut
uble
▁Within
SA
orus
▁harmful
▁repeatedly
▁fence
▁beneficial
▁cage
▁meets
▁scal
▁Whenever
▁,"
ouses
▁abandon
isite
onesia
▁biology
▁diver
▁focuses
▁bullshit
▁Louis
Be
▁thickness
▁pity
▁continental
ITH
▁ram
acular
▁tract
▁russian
shop
▁cabin
▁satur
▁writers
▁Microsoft
▁rip
holder
pers
▁noble
▁maintaining
.7
▁Lab
▁juris
▁depending
idays
▁Imag
▁Used
▁combust
▁exercises
▁indirect
▁dense
▁SE
▁muc
▁dot
▁graft
▁Mont
▁turkey
▁casting
agne
▁dip
lines
▁wreck
▁spatial
▁uncomfortable
▁Working
▁compromise
▁bilateral
▁sunlight
▁kilometers
▁toys
▁helicopter
▁differently
VER
▁virtually
▁sneak
▁Perfect
▁economist
▁suspended
▁Sk
ylon
▁scary
▁Inf
▁Ox
▁obser
CH
▁Vegas
▁flavor
▁mankind
▁vest
▁fatigue
rosis
▁cant
▁masses
▁adverse
▁Kate
▁suspic
▁0.0
▁bulk
▁conservation
▁gum
▁evac
▁rolled
▁constitu
ordan
▁inval
.6
ho
What
▁amid
▁extrem
▁cleaned
kers
▁fatal
▁hepat
▁confess
▁retirement
▁Gra
▁HAVE
▁senator
▁ell
earing
▁closet
▁directory
ko
▁Yo
iolet
▁calend
▁scores
▁assignment
▁Cy
▁Dev
▁torn
▁smiling
▁Relax
des
▁Trade
▁argues
ractions
▁trials
iy
▁News
▁owns
▁drought
▁Cre
ounge
▁tide
▁marsh
▁robbery
▁Trump
ANT
▁heal
▁pension
▁anat
▁await
▁acted
▁wrap
erences
▁cosm
▁Florida
zens
maker
▁actress
▁endless
▁adequate
▁imports
aylor
▁provision
▁capabilities
▁deaf
effect
▁mommy
▁Danny
▁epit
▁sket
▁quantum
oln
Some
▁Fair
onymous
▁Similar
bro
▁twin
▁ure
Based
▁Georg
▁exped
▁Army
▁Contin
▁subtle
▁joining
▁appreciation
▁nasty
▁Kat
▁backed
count
▁lieutenant
liest
▁blond
▁harmony
phy
child
▁MP
▁ramp
▁communist
▁alph
▁coup
▁fails
▁fairy
▁CA
▁applies
▁investor
▁practically
▁Jen
▁Effects
▁isolation
▁globalization
▁punct
▁recip
▁deadly
▁actively
eday
▁palm
▁pharmac
▁acceptance
▁threatening
ulates
▁layout
▁continuously
atics
▁relates
▁balanced
rypt
▁breed
▁pillow
▁predicted
iah
▁Adam
▁snap
▁invitation
▁summarized
▁approximately
oen
▁Unlike
▁david
▁Self
▁filed
▁medication
ughters
▁gathering
▁promoted
▁establishing
▁osc
▁Ming
usalem
▁brows
▁ignored
ciences
▁anxious
▁sevent
▁representation
▁cancel
▁california
lete
izard
sight
▁gramm
▁unconscious
▁brid
▁suggesting
▁declar
▁soccer
▁simultaneously
Now
iami
▁hemorrh
▁stopping
▁motive
▁maintained
▁sounded
othe
▁spite
▁expend
▁barrier
▁blocked
▁breeding
▁pulmonary
umer
esters
▁circles
▁portfol
▁restrictions
▁oxide
▁feather
▁patience
▁Case
▁couch
abul
rove
cribed
▁Phys
▁chase
▁outdoor
CT
▁cu
▁chin
▁Tor
▁hammer
▁programmes
▁brick
▁rises
▁entrepreneurs
▁Walk
▁Angel
▁Govern
▁rend
▁thirst
dimensional
▁Rea
▁metals
function
▁hazard
▁tolerance
▁Medical
▁unfair
▁strictly
jud
▁lifted
▁treatments
▁crossing
▁coalition
bie
▁Students
▁insisted
Ie
▁Making
▁hormone
▁Clinton
▁slipped
▁haw
▁feasible
▁pressing
SP
actic
▁Might
▁trim
▁cheaper
▁dynamics
▁stays
▁renal
borne
▁tale
keeper
▁immunity
▁McC
▁incomp
▁tremendous
▁YOUR
econom
▁wider
▁Than
▁dried
lsea
▁appra
▁wallet
▁mast
▁complement
▁substances
▁Log
▁fraction
ugal
▁reactor
▁AIDS
▁deter
▁variables
▁purple
▁Drop
▁adap
▁pist
▁paras
▁dye
▁inequ
▁fog
ala
▁audit
▁lingu
▁handled
▁possession
aning
▁hind
▁Festival
▁Swed
ilibrium
▁Drag
▁boots
bus
rying
▁opera
atherine
▁deserves
▁ic
aron
fare
▁Bern
▁wins
▁impress
▁directed
utive
leum
▁LCD
▁rif
▁bent
▁Standard
▁honestly
▁lod
▁debts
▁terrorists
▁june
▁phrase
▁peoples
▁explicit
▁yogurt
▁inventory
▁Ill
▁wool
icipal
▁buyer
12
▁Studies
▁torture
ubric
▁Kids
▁voices
▁Beh
▁Large
▁eru
▁makers
▁Top
▁coefficient
▁attempted
▁paragraph
▁loyalty
▁threshold
Then
▁vine
▁supporters
liers
▁outlook
▁Lie
▁Room
estion
▁forests
▁locations
incoln
▁attended
▁deformation
▁Boston
▁patrol
▁orientation
tech
dri
▁lungs
▁gard
▁cliff
wo
▁Stra
▁thumb
▁retired
▁excitement
itic
▁hub
▁societ
initely
▁Mid
ulse
▁surplus
▁Cup
▁pissed
▁acceptable
▁accurately
cence
▁sectors
▁yourselves
log
seud
▁prayer
▁egypt
▁grief
▁Games
▁Pur
-4
▁prediction
aug
▁kills
▁dictionary
uity
storm
▁dorm
▁counting
▁sandwich
hips
▁Friend
▁probability
▁pic
▁cried
▁styles
▁Soci
▁tatt
▁whist
▁processed
po
front
▁acids
▁Pay
▁dread
▁exclusive
fight
▁elite
▁perpet
eries
▁headache
▁protests
▁agreements
▁coastal
condition
▁continent
▁invisible
pless
ictions
▁vector
▁liberty
▁slee
▁Chris
shore
▁Pers
▁lapt
▁sections
▁healing
▁thoroughly
▁lou
▁Cool
▁navy
▁reaches
▁drilling
▁murderer
iva
attan
▁rehe
oxy
ua
▁anest
▁Jackson
▁atomic
▁sacred
▁fifty
dong
▁doct
▁steep
▁miserable
adder
▁cavity
▁fulfill
▁soap
▁tomb
▁appetite
▁statistical
▁ashamed
▁relie
▁Certainly
anth
▁stal
▁bureau
▁clue
▁bicycle
▁witch
▁interpre
▁Enough
▁actors
usive
▁knight
▁MY
erals
▁tissues
▁permit
▁freely
▁equations
egu
▁Eight
▁fucked
▁advances
▁gently
▁fluct
▁Mach
▁sits
creen
▁goss
▁resume
walk
ructive
▁vend
▁Early
▁liquor
jin
▁IM
neath
▁Coming
ulative
▁transparent
▁tuber
▁basin
▁twist
▁preserve
▁hunger
▁2002
▁july
▁Islam
▁writes
lessness
▁focusing
astics
.8
▁sanctions
ston
▁wit
▁diameter
▁displays
▁Hall
▁vitamin
▁guitar
▁TR
▁Sha
gre
▁tire
▁ritual
▁reduces
▁Republican
str
▁extr
▁ethics
▁firing
▁imported
▁packaging
▁slope
▁blowing
▁responses
ichuan
▁Learn
phe
▁38
beat
▁dimin
▁eh
▁dism
▁spacious
acher
▁counterpart
▁lith
▁entity
▁retain
anguage
▁logistics
iban
▁shallow
▁crystall
▁suspicious
▁mobility
▁gates
▁failing
ILL
▁sofa
▁airpl
▁magnific
books
▁NO
▁resolved
▁Need
▁producer
▁Camp
▁talents
▁November
▁@
▁indian
▁Consider
nia
▁generator
▁regardless
▁Gab
▁Nic
▁Tokyo
▁Highway
▁supplier
▁reporters
inistry
▁fusion
▁opponent
▁talented
▁investigating
▁dropping
▁fare
minded
▁regulators
▁rigid
▁unnecess
▁directors
mare
Because
▁Tian
▁bankers
▁develops
▁divide
▁infrared
una
▁Cast
▁brazil
▁circular
▁occasionally
▁33
▁hood
▁deterior
▁jar
▁shortage
▁pant
▁reun
▁accidents
▁Rh
▁voted
▁dressing
▁Fil
▁Tax
▁wrapped
▁curriculum
xual
opoly
▁Proper
▁corrosion
▁discussions
uv
▁Change
▁Oil
▁Major
▁planted
▁preliminary
▁Bobby
▁compact
inth
▁displace
▁sunshine
▁Resp
▁Mir
▁jung
▁crowded
▁perm
▁Detective
got
greg
▁fantasy
▁behave
▁embrace
▁accent
▁colleges
▁Environment
▁Eric
▁acquire
▁immigration
▁entitled
▁sometime
▁villages
opard
▁Kill
▁ecosystem
cor
▁Him
▁Ult
▁clubs
▁prolong
▁surgeon
▁grasp
oided
▁ongoing
While
▁suspects
▁canal
▁gorgeous
▁idol
▁daughters
▁sends
▁buzz
chool
▁faint
▁stressed
▁zoo
▁reinforce
TH
wind
idding
▁infections
isive
▁perse
▁dialect
▁coordination
▁slave
obs
▁bombs
▁borders
DA
▁heated
▁roller
▁collabor
▁Adv
▁bore
▁objectives
version
▁ultrason
▁beans
▁korean
▁bum
amboo
▁viewed
roductive
▁mex
▁topics
▁laughed
▁dub
▁quad
▁sealed
▁WITH
▁Medic
mod
▁algorithms
▁conscience
▁Sher
▁wondered
▁neat
▁psychiat
wall
▁boats
▁accompany
▁confusion
▁AR
▁Opt
▁lists
▁Ministry
taking
▁ambul
▁furnace
cap
▁Along
▁Johnson
keys
▁mour
▁Daddy
▁spinal
▁screaming
▁freeze
▁grandma
▁Interest
▁Yesterday
▁Fun
▁wherever
TO
▁purse
gon
▁collecting
▁ambit
▁attribute
ancial
▁Rev
▁overnight
▁globe
stra
ailing
▁mater
▁delayed
▁curse
lihood
olves
▁twelve
▁inspiration
▁Elizabeth
▁systematic
▁sab
▁Bure
▁hollow
▁touching
▁cooperate
▁categories
▁Ice
▁flies
▁punish
▁cardiac
▁encounter
▁rug
▁symptom
▁maj
▁spont
▁Rather
omous
IL
▁advise
▁foster
▁Ol
▁pee
▁Liver
▁Yu
▁Gib
▁Pick
▁trains
jing
▁LORD
▁mock
illation
▁restricted
irds
▁sharply
▁operators
world
vascular
▁shortly
▁Dong
▁Iike
▁analyt
▁gy
▁sul
ulent
▁thereby
▁insects
▁publ
▁tune
▁bases
▁identical
▁strengthening
▁mm
oped
▁consensus
▁chim
▁pencil
fold
arents
hattan
▁prosecut
lace
▁dun
oard
▁shuttle
▁width
▁Mind
▁holidays
hone
▁uncon
▁wheels
CC
▁dock
aboration
▁photographs
elle
▁sixth
▁Vietnam
▁initially
▁shine
▁strikes
▁representatives
▁CAN
▁lawn
ainted
▁hen
▁lazy
▁amend
▁beaten
▁disorders
umph
▁oldest
list
▁anten
▁massage
▁symm
uccess
aks
▁Pa
▁ly
▁peas
▁reviews
ogs
▁automobile
▁competitors
.0
▁drown
▁recruit
▁Virgin
BA
▁incidence
rose
▁fragr
▁caut
▁blown
▁absent
▁meteor
ayed
▁planes
▁capitalism
▁tumors
▁Bull
▁electronics
▁bee
▁exagger
▁apparatus
▁Aud
▁stew
▁enlight
▁lightning
▁supreme
itiveness
▁Made
prints
▁Night
▁Imagine
▁territor
EP
OULD
▁demanding
atched
▁Process
▁embedded
▁researches
▁swift
▁cereal
▁desired
arts
▁Face
▁avoided
▁pharmaceutical
▁Luc
▁hint
▁april
▁Rac
▁metabolism
▁populations
▁Double
▁Pea
▁tet
opath
▁Close
▁unpre
rative
▁dealer
▁flowing
▁combining
▁compression
▁fist
▁expertise
▁acknowledge
regular
▁sacrific
▁criminals
▁producers
rospect
▁codes
▁recycl
▁rivals
▁wasting
▁bean
▁namely
eda
▁september
chester
▁legitimate
▁Israeli
gradation
▁addressed
▁pier
▁pipeline
▁Cooper
▁volunt
▁jewelry
▁suspension
spec
▁herb
▁Pract
▁belly
▁cooked
▁nightmare
▁Sat
▁bottles
▁founder
▁motherf
▁tactics
▁rage
aved
ylene
▁Blue
neys
▁Brad
▁frog
▁surfaces
▁discussing
fulness
▁performances
▁exert
▁volunteers
onder
▁tricks
▁broader
▁january
▁Ce
▁Mars
▁rhythm
▁guidelines
▁subsequent
heric
▁publicly
▁complaint
plex
▁rhet
▁Federal
▁disputes
▁bund
▁perme
▁troubled
government
▁34
▁AM
▁cheating
▁jokes
▁smiled
▁dignity
▁cylinder
▁recre
▁employer
▁hypothes
▁targeted
▁lubric
▁realization
pea
hour
▁pigs
▁virtue
▁england
▁phenomena
▁Norm
ricular
phones
▁physically
▁calendar
▁ambitious
▁stip
▁Family
▁remarks
▁implications
ften
▁HIV
erman
OME
▁fitness
▁Uk
▁lane
▁liar
▁interrog
▁popularity
▁controversial
▁jerk
ournal
belie
itably
▁sheriff
dis
▁fleet
▁doc
▁Compar
▁happily
▁outta
▁Morgan
▁echo
▁cyt
▁beast
▁raises
▁safegu
▁summary
▁triumph
▁involvement
aired
▁challenging
▁Lady
▁dealt
▁lawsu
▁sells
▁SA
▁yields
▁friction
▁chains
▁transformed
▁flaw
▁verte
▁catast
▁restra
▁worrying
lot
▁Atlantic
woman
cedented
dle
uo
▁Ram
▁rape
▁tablets
TER
▁wears
▁scenery
▁Sand
▁encouraging
▁Color
iances
▁motivation
DS
▁Grow
.9
▁carp
▁ammon
▁Maj
▁fits
▁icon
▁salad
▁lifestyle
▁planets
▁associate
▁contributions
zes
▁CS
▁lateral
▁Short
▁substit
▁perception
emed
▁environ
▁Obs
▁fossil
▁honour
▁whereas
▁mainstream
sect
▁commodities
pot
▁DON
▁Var
▁bis
▁solvent
stage
All
▁beliefs
▁Abstract
▁equality
▁departure
star
▁Fact
▁alloc
▁waist
▁heritage
ride
▁Bon
otive
▁vein
▁navigation
▁distinguish
▁Bang
▁hast
▁mosqu
▁colored
▁climbing
▁behaviors
▁Ryan
▁insulin
▁luc
▁indoor
▁outbreak
▁favourite
▁professionals
hea
▁shapes
▁goodness
▁Wen
▁Hung
▁Brian
▁fibers
▁lac
▁fled
▁nick
assium
▁catching
▁conclusions
di
▁Sex
▁XML
▁chef
▁mc
▁tran
▁Kevin
▁wasted
▁versions
▁determining
▁Due
▁rally
▁creativity
▁drank
bration
▁reveals
From
▁rack
▁scarce
▁consequence
▁progn
▁concentrated
▁unprecedented
orable
▁specim
▁enables
ribe
▁idi
▁Na
▁Carol
▁gastric
▁shipment
▁finishing
▁references
cler
ryer
ishop
▁Hosp
▁unsub
oscopic
▁Card
▁executed
▁CR
▁Author
▁investing
ozy
▁bind
cury
▁fiction
pace
▁Into
▁bits
▁Space
▁risky
▁dozens
▁modification
▁SU
▁jurisd
▁resent
▁meaningful
▁occurrence
▁expressions
OC
▁dol
▁signing
▁Priv
ja
hum
▁Susan
▁wicked
▁inferior
▁diverse
▁shocked
▁Andy
▁contacts
▁disposal
▁counterme
▁cancell
▁dumped
▁kissed
▁pointing
▁attributes
▁Amaz
▁Arthur
▁vascular
▁\
burn
▁sore
▁spur
▁fluor
▁chasing
▁PLUS
▁closest
▁complaints
▁incredibly
▁prest
▁integral
▁servants
ignment
▁embarrassed
▁AL
▁accumulation
zi
▁Pap
▁proliferation
backs
▁freezing
▁coin
▁visc
▁193
▁afterwards
▁novels
▁rushed
ribly
▁lemon
▁subway
▁august
▁emerge
▁evaluated
▁contributed
▁eternal
▁suppliers
▁strat
▁verify
▁transmit
▁55
▁clus
▁plum
▁alley
▁intens
▁duration
▁collapsed
▁Senate
▁underneath
▁laughter
▁nu
ushes
▁tribe
▁schemes
ropol
▁ranks
▁proposes
▁Roger
▁fires
▁grabbed
ige
▁friday
▁inherent
iox
▁legacy
▁adoption
▁Ire
▁pose
▁imposed
▁obligations
▁Rom
aphor
▁arth
▁axis
hearted
▁scanning
▁ministers
▁presum
▁Academy
▁billions
▁sang
stick
▁Soft
▁counts
▁Anybody
▁kindness
osion
▁toll
▁analyst
▁blessing
▁ads
onsible
imed
▁Bud
▁oven
▁toug
▁Bible
▁query
▁jumping
▁submitted
▁genet
▁relaxed
▁album
▁Gentle
▁amenities
acchar
▁prescription
▁True
▁firmly
▁varieties
▁breakthrough
▁Jun
▁render
▁foreigners
▁vampire
▁teles
iti
arin
▁momentum
▁orph
▁caution
▁medal
entine
▁Miami
▁Mur
▁tan
▁Harvard
▁spectacular
▁incur
▁ideology
▁Mongol
▁adsor
Although
▁afghanistan
adequ
▁compassion
eren
▁outfit
▁advised
▁crush
▁lasting
▁borrowing
▁Lim
▁wipe
▁Creat
▁residence
▁satisfactory
uling
▁Dun
▁frost
▁revenues
bur
▁fried
▁Airport
▁luggage
iro
▁blur
▁seismic
sembly
▁calib
▁skirt
▁conspir
▁specification
▁Ju
▁Jess
▁amino
▁environments
otox
▁noon
▁digging
▁optimistic
▁Ep
heim
▁bullets
▁consent
pert
▁Die
▁cervical
▁hates
▁voting
▁fragment
▁arrog
▁neighbour
▁reservation
▁mush
hma
inson
lements
▁Palestinian
ussy
▁liquidity
▁constitutional
ryst
olester
ensed
keeping
▁tablet
▁barriers
▁handful
▁pressed
nergy
▁sentences
▁Berlin
▁australia
▁Ocean
▁candle
▁expects
▁porn
▁cheat
▁sho
▁acet
▁activated
▁kim
ldom
▁lav
▁Type
▁cyst
▁crust
▁exhausted
ixed
▁tastes
ilization
itating
▁3-
▁Cos
▁splend
▁Prep
▁inches
▁farming
helial
umbling
▁evolved
▁cigarettes
▁efficiently
▁fragile
anks
idate
phal
aline
▁seam
▁bend
▁cope
▁Moscow
▁galaxy
tt
▁aston
oresc
▁Dave
ealand
▁urine
western
▁scholar
gie
.-
▁capac
▁poisoning
contin
step
▁souls
▁vivid
▁vague
looking
▁induce
▁Select
▁Ireland
▁loos
▁monday
gas
▁atom
▁Jewish
▁Taylor
▁racing
▁tuesday
▁invested
▁elephant
▁sergeant
▁leap
▁fest
▁Naz
▁Ur
▁shelf
▁alright
▁designers
▁calculating
▁overwhelming
rasound
▁Andrew
▁occupied
▁Jake
▁sour
▁Network
▁microscope
▁zinc
▁Museum
▁Hopefully
▁substitute
▁gossip
▁statue
▁portfolio
▁equilibrium
lett
▁mould
▁Bureau
▁Joseph
overs
▁offset
▁columns
▁dimensions
▁Bal
inn
cycle
▁inflammation
▁600
▁Ban
▁ceo
▁Exit
▁forum
▁Object
▁facilitate
▁surrender
▁bankruptcy
▁removing
▁donor
▁threaten
▁societies
SE
▁Eat
▁bamboo
▁trillion
▁oxidation
▁respiratory
▁rotation
▁rescu
▁strangers
▁ket
▁feat
▁nerves
▁despair
▁punished
▁irregular
▁synthesized
▁Cost
▁Uncle
▁horizon
▁demonstration
TA
▁gases
▁connecting
▁Doc
enter
Don
izations
▁sensors
▁colleague
▁ups
▁Nope
▁pork
▁visits
▁operated
▁destro
▁absurd
▁altogether
▁corporations
▁correction
▁indul
▁Point
▁safer
▁responded
▁dupl
▁romance
thy
▁IR
▁coc
▁pel
▁obligation
▁peripheral
▁hypertension
▁defensive
▁imped
uncture
▁footage
▁someday
▁chromos
▁stubborn
▁Ari
▁myocard
▁Gener
▁spill
▁potato
▁photographer
▁LI
▁pent
▁stack
▁athletes
▁dominated
ori
idel
ussion
▁addict
▁approaching
▁recommendations
EG
▁ischem
▁discoura
▁implant
▁avoiding
▁Py
rade
▁gau
▁compos
▁hunter
▁passport
▁testimony
▁worm
▁heroes
▁answering
▁embarrassing
▁researched
▁Johnny
ufficient
fr
▁Columb
▁Few
asses
▁spiral
▁sentiment
▁Exam
▁offensive
▁Ter
▁pean
▁proves
▁assured
▁offense
▁persuade
▁transplantation
▁USA
▁Psych
▁edition
▁perceived
▁dwell
▁Character
▁Less
▁champagne
chair
▁arrow
▁civilians
anean
▁Kid
▁Left
▁Syria
▁makeup
▁arguing
▁blanket
▁Building
low
▁Neg
▁wrest
▁servers
▁stadium
itzerland
▁theatre
▁discrimination
▁Shoot
▁breeze
▁freight
▁Seriously
BS
▁Jerry
▁coincidence
▁Times
▁imagined
▁availability
▁fatty
▁ethical
▁44
ectomy
▁mighty
▁quarters
▁hurting
▁mapping
writing
ependent
▁diagnosed
▁purchasing
▁shorter
▁cultivation
▁journalists
▁WHAT
▁texture
pay
rup
▁matt
▁mechanics
▁wives
▁timely
▁pricing
▁households
▁Emp
▁Imm
▁incom
▁impose
▁confron
▁lig
▁Money
▁glucose
ographical
▁unclear
▁Drug
obic
▁hid
▁missiles
▁municipal
erg
inks
▁Cold
▁Rose
▁frightened
▁65
▁october
▁intensive
▁celebration
▁Aff
▁prey
▁dramatically
▁Dutch
▁persistent
irus
▁Civil
▁clip
▁immense
▁nowadays
▁wrist
▁bloom
▁Society
▁intu
▁theft
▁explosive
patic
ench
test
▁Construction
▁inquiry
▁skilled
▁Report
▁apology
▁pod
▁coordinate
▁February
ripp
▁Fif
ribution
▁premises
▁opponents
His
Since
uffs
▁completion
upp
▁drying
ocyte
▁sunday
▁thrust
▁urged
▁gambling
▁ideological
▁accus
▁gland
hemistry
▁compress
▁improvements
▁inadequ
▁petroleum
▁greenhouse
▁tanks
▁intent
▁fighter
ablish
iliary
▁blamed
▁jungle
▁unnecessary
▁descend
▁conception
agle
iosity
▁chill
▁coward
gs
▁irrit
▁pseud
▁Direct
▁soda
▁Board
▁bonus
▁politically
▁39
▁CN
pose
▁Ross
▁cheek
▁glance
▁harass
▁Leon
▁Seems
▁coupling
▁influential
▁cens
enh
range
▁urge
EF
forming
issance
▁forty
ensitive
▁coronary
▁Xia
▁dum
▁december
▁Financial
▁dissert
▁fastest
▁Ast
raphy
▁1970
▁smells
▁measurements
ader
▁upgrade
▁modernization
▁cater
▁acoust
▁beloved
▁severely
ologically
▁Determination
▁electromagnetic
▁Tar
▁Club
▁Song
▁mixing
▁publisher
▁cel
▁Director
▁Chelsea
▁fitting
▁organize
imm
▁mug
▁Tour
▁swept
▁dod
▁fame
idency
▁succeeded
▁implementing
▁yang
resent
▁divine
vo
▁Event
▁rehabil
▁District
▁guaranteed
▁Morning
▁magnificent
ani
▁combustion
uming
▁poems
▁Kingdom
▁mans
▁cease
▁bacterial
gal
inf
▁righteous
▁kar
▁Incre
▁Model
▁interven
▁Bag
▁seldom
▁neu
▁nurses
▁ambulance
▁astronaut
▁batteries
▁confidential
dep
▁Cat
▁exclud
▁deficits
▁fax
▁cardio
▁passive
▁shaking
rys
▁aden
▁paul
encing
▁nodes
▁aboard
▁currencies
▁anom
▁spotted
▁conve
▁dilig
▁provider
▁italy
▁Prince
▁Eastern
▁hairdryer
▁Si
esity
▁bury
▁upgr
▁banned
oons
▁NAT
▁educated
▁republican
▁Conference
▁adjusted
▁Lincoln
▁residential
onge
▁Doing
▁Journal
ooked
▁1999
▁disgu
▁Dear
▁Lock
▁indisp
▁optimum
▁Yun
▁bout
▁Huang
▁umbre
▁elector
ati
isons
▁plun
▁Force
▁Dra
▁Anna
▁approached
▁publishing
▁Feel
essert
MA
▁Rub
▁sap
▁importantly
gun
aska
▁bour
▁seized
ref
▁Sa
arma
▁Ash
▁Exec
▁squeeze
▁mortality
▁incentive
▁indicator
▁Bi
olicy
▁shade
rd
▁rating
▁declare
▁minimal
▁exchanges
huang
▁mant
▁Compl
▁dough
erb
▁Ent
▁Rick
▁deer
▁Catholic
▁distress
▁refugees
▁Ku
gments
▁Death
▁differ
formance
▁strings
eav
▁Iron
▁saus
▁fathers
eu
▁batch
▁JUST
▁maps
hesia
▁Seven
▁capsule
rost
cover
▁feud
▁backing
▁pockets
▁negotiate
▁grip
▁november
▁degen
▁bronch
▁wednesday
▁ali
▁Scar
▁Mess
▁carn
▁medi
▁improves
▁enrich
▁hay
▁approve
Ex
aci
▁TC
food
▁visa
▁multipl
▁replied
▁Nap
▁posts
▁Democratic
▁competitiveness
▁displacement
▁slice
▁ambition
▁ancestors
▁holl
▁competent
▁dealers
vet
hetics
yer
▁gle
irk
▁copyright
bly
loe
ordon
▁flap
▁Secondly
▁mistaken
ni
▁slim
▁trump
▁dragged
▁Communist
lan
▁wang
▁balloon
chief
▁penny
▁metast
▁screening
▁flee
▁Jordan
airy
oven
store
▁residual
▁nood
▁conditioning
▁BP
▁CE
▁attraction
aii
▁vom
▁risen
▁Walter
▁lovers
▁wizard
chemical
▁emission
▁declaration
▁Champ
▁Hospital
▁antibiotics
▁confirmation
dp
pow
▁reprodu
▁meanwhile
▁rounds
▁nig
▁Organization
conf
▁babe
▁Royal
▁crashed
▁modes
▁Excellent
▁foul
▁Simon
▁christmas
▁Researchers
▁horror
My
elect
▁Confuci
▁ensuring
▁employers
▁philosoph
▁deficiency
▁Brand
▁pecul
▁triggered
▁magazines
▁interviews
▁Administration
▁ken
▁Save
▁chess
▁zones
▁lee
pher
opathy
▁envelope
▁homicide
▁Irish
building
▁murders
▁minerals
▁orb
▁oxid
essions
▁laptop
ipper
▁Roll
▁loser
▁Barack
▁dimensional
MB
▁Agr
mph
▁IF
▁sweep
SC
▁Common
▁weaken
aver
otes
▁alongside
▁toe
liness
▁weekly
UN
▁ambassador
▁speculation
sels
▁CIA
abetic
person
unting
ationally
▁Saud
▁collar
▁Ford
sed
▁Eg
▁groom
▁flights
▁homeless
▁graduation
▁mol
▁hers
▁humanitarian
ammy
▁Jason
▁curative
▁peculiar
otein
▁gloves
▁pestic
▁hostile
▁cooperative
▁temporarily
▁sticks
▁publication
▁technically
duction
uclear
▁divorced
▁Yellow
▁blessed
▁separately
▁erect
▁converted
▁imbal
▁burns
▁pine
istent
▁potatoes
▁jeans
▁portra
▁journalist
▁ceramic
▁permitted
▁specially
utiful
control
▁chloride
pin
lysis
▁corrid
▁pursuing
▁ARE
arter
▁Gulf
▁coke
▁embra
wife
will
bling
▁Annie
▁authorized
▁whore
▁Rachel
▁bargain
▁Francisco
whe
▁AF
formed
▁leverage
▁1998
▁Ly
aryn
▁Fre
▁centr
▁costume
▁subsidies
inea
▁diesel
▁inequality
held
claimed
▁Os
quality
▁entrepreneur
ailed
▁Mama
▁hostage
▁uter
bone
▁float
▁cleaner
▁abdominal
▁detecting
▁Dav
▁fel
▁dialog
▁cellular
▁colorful
▁extracted
▁1,
lene
▁malignant
▁Nevertheless
orship
upuncture
▁comparing
▁Jean
▁doubts
▁microsoft
▁accelerate
▁immigrants
▁possibilities
ansas
▁laying
▁tragic
▁achieving
leton
▁escal
▁policeman
▁politician
▁Clearly
▁analytical
riving
▁validity
▁geological
▁Hug
ensing
▁climbed
▁ankle
▁allergic
▁supplied
▁Anne
▁triple
▁Compared
▁Bru
▁chairs
▁WHO
▁sins
▁Usually
▁Mountain
▁Been
▁slop
rophic
▁Blair
▁feared
▁defeated
▁nonsense
cus
headed
effic
▁ling
▁nominal
▁incentives
▁indication
▁obey
▁outcomes
▁skip
anship
▁fractures
▁allocation
anxi
ifact
▁hence
▁representing
▁empir
▁Computer
▁demanded
▁collaboration
▁dessert
▁PD
omers
▁vain
▁wished
▁estimation
▁recipe
Of
▁Cra
▁compliance
▁trucks
▁gallery
▁FR
▁Jersey
▁gover
forward
▁seemingly
▁stimulate
hire
▁distinction
▁Broad
atching
▁credibility
▁costly
▁respected
▁Australian
▁chromatography
rh
▁arter
▁boards
▁Cou
▁flip
carbon
▁greece
▁volatile
▁degradation
afi
hend
▁Pear
▁mounted
▁dismissed
▁blend
▁breach
▁differentiation
▁Gentlemen
aque
master
▁fount
▁borrowed
nty
ocrat
▁brace
▁pione
LY
bu
▁retro
▁worlds
▁scattered
▁contra
▁forcing
▁hipp
athetic
oscope
▁stall
orescence
esy
pit
▁designated
▁fertilizer
▁supper
etheless
istically
▁backward
▁failures
iterr
▁Phot
▁Mu
▁HPLC
arding
▁sizes
▁Return
▁inhabit
▁Canadian
▁adaptive
▁arsen
▁Circ
▁traveled
Any
olas
▁cod
▁mrs
▁hiring
▁humili
▁strains
▁competing
▁balcon
▁grades
▁volunteer
▁Name
estone
requency
▁clearance
▁potassium
▁limitations
obe
▁ming
▁atoms
▁suscept
▁simulated
▁Avenue
rans
ieves
▁socialism
iley
▁Labor
▁Valley
PC
▁ALL
▁rag
▁sor
▁buffet
▁dissertation
▁1997
▁gasoline
▁Ze
▁messed
▁derivatives
▁Nik
otrop
▁Table
▁searched
▁addresses
▁Rod
▁renov
▁Ga
▁Amy
▁helpless
▁paths
▁swall
▁locker
▁manners
▁provinces
▁comparative
VD
dad
izers
ports
▁postp
▁assuming
▁occupation
▁Gene
▁repay
▁harbor
▁Inside
▁Mexican
▁marking
▁shining
▁abortion
▁metaphor
cat
nedy
▁reluctant
▁boundaries
shan
redit
▁roses
gentina
iration
ouncing
▁spinning
▁inevitably
▁philosopher
▁madam
▁sober
▁nearest
▁thursday
▁Peace
▁Tommy
▁ladder
AG
▁Mommy
▁southeast
arity
▁arise
▁heels
▁offshore
pler
▁Du
▁starch
▁unstable
▁purchases
▁policymakers
▁modify
▁dug
▁enjo
▁lifting
▁Key
▁subur
▁analyse
olesterol
ongqing
▁insure
▁visitor
▁narc
▁tubercul
eks
ahoo
▁bark
▁lamb
▁Recently
▁floors
▁illusion
rise
▁Bry
inging
▁rehears
▁Dom
▁Throw
▁folder
▁instability
80
▁lump
dney
▁chol
▁breakdown
iph
▁)"
usions
▁Liber
▁halfway
comed
handed
▁lounge
▁Olympics
▁Often
▁shook
▁Fall
▁atl
▁offs
▁Putin
▁revel
▁protesters
▁mu
▁Vin
▁liby
▁Pete
▁muff
▁legally
▁medicines
▁pressures
▁elementary
▁locate
▁Quality
▁damages
▁Din
▁Clean
▁earliest
uters
▁Station
▁traders
▁imprison
▁Edd
▁jaw
▁Dead
rection
▁Steven
▁viruses
▁clown
▁confession
▁generating
▁debr
optosis
▁Nah
umble
▁succ
semble
▁fascinating
▁Fort
▁Hence
▁underwater
▁Laur
▁pand
▁Bridge
▁graduated
▁obstacles
▁NAS
▁gee
▁clearing
▁reinforced
eled
peare
unted
▁puzz
▁dishon
▁travelers
roach
arency
▁loses
ensable
▁progressive
▁prag
ocytes
istance
alia
ignty
▁bloss
▁Islamic
▁disabled
▁celebrity
▁LO
▁Mun
▁slam
▁throm
▁epic
▁Emily
▁steak
▁absorbed
▁grinding
▁restruct
▁tid
▁rebels
▁michael
▁Virginia
▁freaking
▁morality
▁packages
▁Republicans
▁dancer
▁pepper
▁infinite
▁Ali
▁transm
▁wholes
dog
ixon
▁Gas
▁Mand
▁Majesty
▁commands
▁relieve
akespeare
▁presidency
esium
▁Beth
▁drawer
▁Liverpool
▁mines
▁african
▁encount
▁underwear
▁Claire
▁Theory
▁broker
OK
Un
▁Thailand
kish
▁Guy
▁updated
▁ba
ensis
▁encountered
▁accidentally
▁embassy
▁receptor
▁sampling
▁99
▁delegation
▁Emb
▁lev
▁brutal
▁joking
amous
emark
▁sympathy
▁Breakfast
ESS
oqu
▁deploy
▁airplane
▁Joey
▁analog
▁polite
▁swallow
▁symbols
▁receives
▁organisms
▁infectious
hyde
roit
icable
▁cared
▁cents
▁vocal
▁enabled
inkle
▁Kelly
▁quote
▁vapor
▁Market
▁crushed
▁adjacent
▁clo
century
▁senses
▁2-
oenix
▁Slow
ulsive
▁Cheng
▁cyber
▁divid
▁reserved
▁eliminated
▁websites
▁Prem
▁constraints
lad
▁..."
▁seller
▁violation
ols
▁inapp
▁antenna
▁distinguished
name
▁rud
▁Hill
▁Philipp
▁buttons
▁viewpoint
▁Dean
hancing
▁crises
itionally
▁favorable
▁kings
▁Mao
utter
▁puls
▁Energy
▁apples
▁tightly
▁mushroom
BM
▁Deep
▁Whose
▁infar
▁deployment
gh
▁max
▁1000
▁Place
▁primitive
merce
▁append
▁bridges
▁Including
▁magical
▁infilt
▁kissing
▁northeast
▁Bell
▁exploring
▁introducing
▁800
▁Bat
▁spain
▁endeav
▁humble
▁carriage
▁narrative
60
▁CC
iors
▁gent
▁slic
▁forehead
hui
▁illum
▁switched
▁irrigation
▁prejud
▁undertake
▁cultivated
offs
▁Scre
▁unac
rehend
▁awarded
▁Hig
idated
▁tackle
▁doctrine
▁suspicion
▁Ball
▁traits
▁History
▁bubbles
▁Industrial
▁250
armed
▁interfere
▁FA
isal
▁towel
▁preval
▁Earlier
▁abundance
▁microb
▁anterior
▁execute
▁Field
uits
▁Centre
▁Agricult
▁attending
▁collision
iography
▁inheritance
cery
▁dental
▁misery
▁keyboard
▁Matt
mented
▁shear
▁upside
▁landl
▁excell
ockey
▁facult
▁ultrasound
don
▁Grab
▁Plant
▁tense
▁lighter
▁welcomed
▁scored
OUT
▁95
▁Gun
▁yen
▁orche
▁conclude
iterranean
▁grim
▁decides
▁definite
▁supermarket
▁rhe
▁pour
▁cracked
▁shadows
▁cush
▁males
▁tex
▁Answ
▁Wild
▁lacking
▁dreaming
▁reign
▁sulfur
▁sovereignty
hthal
▁benign
▁instantly
▁Bol
▁Alice
▁asthma
▁erosion
▁neurons
▁portal
▁foam
▁iphone
▁switching
▁tattoo
▁premature
▁mexico
▁diamonds
▁quantities
▁cum
▁handy
abulary
▁arrives
▁anonymous
▁sunny
▁guided
enders
▁lining
ortunate
hol
moon
▁Strong
dig
nity
15
after
▁twins
▁Word
▁abst
resses
▁Drive
▁intermediate
olving
▁pairs
▁restored
▁attitudes
▁Eli
▁Doug
▁poured
▁jurisdiction
▁gaz
station
▁Problem
▁intimate
▁treasury
▁Jews
▁questioned
▁withdrawal
▁pipes
▁prescribed
atical
▁melting
▁hopeless
IE
▁Write
▁negotiation
▁hyg
▁ulcer
ira
▁spine
achelor
▁intact
▁upward
▁airline
▁cookies
▁pastries
▁influencing
▁43
▁pave
was
ector
▁Burn
▁brake
▁immort
awa
check
▁badge
▁femin
▁stagn
▁attacking
▁specialist
▁Ut
eron
▁fork
▁tubes
▁sanct
▁finest
."
bian
▁distinctive
ims
verted
▁hatred
▁template
▁workshop
▁blu
▁canv
▁videos
▁physiological
▁brass
▁puzzle
▁admission
▁stainless
▁questioning
▁Hor
system
▁Marsh
▁fridge
▁Forg
▁regen
▁varied
▁futures
redict
▁dreamed
▁sue
▁george
▁pledge
▁unrest
▁blocking
fin
▁Lieutenant
▁pretending
▁abol
▁trademark
▁Mechan
die
bank
▁reminded
▁Indonesia
ela
worm
▁Jerusalem
▁vocational
▁transc
▁Goodbye
▁sticking
CE
▁unfortunately
▁grape
▁intake
▁testify
▁defendant
▁Sem
▁roast
▁Treatment
▁specifications
igs
▁Mmm
▁Terr
▁alib
▁epidemic
▁planting
▁lease
▁Buff
▁leth
▁forens
bled
aware
▁Cond
▁burnt
▁realm
current
▁obesity
days
▁lined
▁connot
▁throne
▁ranking
▁complained
▁barn
▁Hands
▁Xiang
▁assumption
▁radioactive
▁advertisement
▁Sad
▁Dark
▁sucks
▁kicking
▁downturn
▁partition
▁192
▁loo
▁goat
▁adoles
▁versus
ben
liver
▁slower
▁Georgia
▁pathetic
▁elaborate
▁constitute
▁Kyle
▁unders
▁Manhattan
▁provincial
▁transmitted
▁oct
▁lakes
▁bladder
▁os
▁stair
instein
oused
▁paperwork
▁criterion
▁economical
▁Area
▁Chair
▁propri
▁yards
▁Edward
▁umbrella
▁indicators
▁perfection
▁MRI
▁dos
▁fighters
ques
▁strongest
▁indicating
▁ana
▁bucket
▁anytime
▁traditions
▁Saf
addafi
▁Chloe
▁graduates
LA
estly
During
▁cholesterol
ested
ilton
▁shat
▁Patrick
▁Ukraine
▁textile
▁deadline
▁ego
▁decoration
▁Mine
Therefore
▁Prop
▁Stock
▁artifact
▁purchased
▁loft
▁curiosity
▁Ve
▁Amb
ppers
▁Assembly
▁regulate
▁interactive
rus
lium
integr
▁Saudi
▁naval
▁cruise
▁incons
▁scot
▁Heart
▁edges
induced
▁grammar
aki
pic
▁overd
bish
▁blo
▁rays
▁Natural
▁85
▁Already
▁reminds
▁translate
PA
▁sensible
▁Careful
▁seasons
▁guessing
Yes
▁bog
▁sketch
economic
usterity
▁uranium
▁emergence
▁challenged
cker
insula
▁radius
▁companion
▁attempting
▁consulting
▁wiped
cha
▁upt
▁flor
▁Larry
▁muslim
▁adhesive
▁eats
▁Number
▁Travel
▁fixing
▁accepting
▁verd
▁Scotland
▁Convention
▁backs
▁Traditional
▁OUT
wa
▁marginal
▁wastewater
▁exploitation
asi
▁solo
course
▁canada
▁prevented
▁Ok
▁sou
▁shrim
ogeneous
▁Guangzhou
▁lacks
▁occasional
▁Team
Americ
▁semin
▁corners
▁masters
itime
▁Experimental
dam
▁voy
▁Living
▁shifts
▁Senator
▁balcony
▁detector
▁Vill
▁Hitler
▁warrior
▁delighted
about
▁camps
▁businessman
▁gratitude
party
▁blows
▁deton
▁marrow
▁independently
▁Cell
▁Access
▁sediment
▁prognosis
wei
▁woo
▁dile
▁riot
▁Fight
▁reads
▁battles
▁Chemical
TS
▁pert
▁inclined
▁convincing
leen
▁Dor
antine
▁sessions
▁sung
▁clamp
pleasant
▁Capital
▁anne
▁dehyd
ogenous
▁Private
▁methodology
▁congen
▁respects
▁Ele
▁HER
▁bod
▁superf
▁inherited
▁practicing
▁iv
olds
▁nasal
hop
▁whale
▁antiox
▁readily
▁initiatives
hism
ellig
▁farms
ricane
▁trous
▁stepping
▁View
▁gloss
▁disgusting
tra
stru
▁booth
▁Deb
▁cinema
▁overhead
▁southwest
▁strengthened
▁surprisingly
being
▁sunset
ylvan
inator
▁anthrop
▁induction
▁owing
▁joints
▁relate
▁portray
▁accommodate
▁demonstrates
▁Ord
▁Tan
▁Quite
nthesis
▁seventh
itus
prof
▁120
icket
▁regards
▁audition
▁molecule
cult
▁counted
▁comic
▁paris
▁1960
▁debris
▁farther
▁gi
▁glut
▁oak
▁morphology
▁manufactured
▁Ji
ipse
develop
▁enjoys
▁obstacle
anny
▁Alp
▁attain
▁dangers
▁peasants
yt
▁faults
ymm
drop
▁Relations
link
▁Shh
minbi
▁privilege
▁PE
▁ports
▁angels
▁glorious
▁architectural
amy
ighed
▁rupt
▁popul
▁Single
▁paste
▁impulse
▁documentation
oubted
▁deliberately
▁fermentation
▁ecl
▁toes
▁happier
▁ignorance
▁transparency
ATION
▁polls
▁pyram
▁twisted
▁appropri
▁intentions
▁struggled
▁aug
▁trips
▁betrayed
▁glow
▁loads
▁queue
▁preserved
▁cows
▁submar
▁gesture
▁steadily
▁chen
▁warfare
▁accordingly
aka
▁Spir
isting
▁sweater
ti
bin
anim
▁bob
▁overhe
▁coupled
▁honesty
▁respective
▁underest
▁unfortunate
hao
▁rifle
▁parade
▁ethanol
▁travelling
INK
▁sack
▁unhe
▁northwest
▁interactions
▁vault
▁cyn
▁maturity
new
aysia
▁bees
▁derm
▁flux
zene
omon
▁casino
▁RE
ringe
▁Xiao
▁rows
▁parks
▁enters
▁Sichuan
▁butterfly
▁describing
▁Engineering
boat
▁Reserve
▁survivors
▁DID
▁lan
▁bolt
inational
ggy
gate
green
▁Lots
▁rash
▁corps
ounding
▁justify
▁terribly
isers
▁ghosts
▁Complete
▁adjusting
llor
▁disl
▁unified
ante
▁Officer
▁excav
angular
▁acquaint
▁ltd
▁oath
▁clerk
▁spends
▁traces
controlled
▁Alan
ifully
▁beard
▁swelling
▁forbidden
▁indispensable
▁Yuan
▁Music
▁socks
▁cob
▁draws
▁saint
▁routes
▁faithful
▁Beautiful
▁discretion
▁seiz
▁Contract
▁dependence
▁conse
▁disasters
▁conducting
lies
span
▁rode
▁UP
▁Sup
▁las
▁expose
▁orphan
structure
▁kern
acious
▁weaker
▁graphic
ouston
▁Across
▁unions
▁warmth
▁longest
▁electrode
▁profitable
▁acknowledged
▁dwar
rors
▁advers
▁shooter
▁deposition
size
▁appe
▁exem
▁wil
▁admin
▁BR
▁2013
▁Emer
▁ally
▁memorial
▁tournament
▁reconstruct
stan
▁limb
outing
▁whisper
▁decorated
supp
▁photography
Ar
▁quart
▁unpleasant
▁matched
rawn
▁Mah
▁Stat
▁ultrasonic
▁dairy
▁vigil
▁tariff
▁nucleus
▁Lily
▁rolls
▁rabbits
▁NATO
▁secured
connected
▁hopefully
MC
eb
rator
▁unav
▁optimize
▁comedy
▁villagers
▁legislative
▁Thanksgiving
otechn
▁nails
▁advocate
gian
jian
▁missions
▁Similarly
▁retrospect
via
nings
▁Revolution
enez
▁gymn
▁merc
▁pulp
▁hypothesis
cycl
▁understands
▁physic
▁desires
ilin
▁drift
▁processor
▁recommendation
▁dated
▁conviction
▁guang
▁sausage
▁cautious
▁herbs
▁idle
arkozy
▁slipp
taining
▁consume
▁publicity
▁witnessed
▁pathological
pson
▁Dub
curity
▁lawsuit
▁paradise
▁convicted
▁Tri
▁sheer
▁robots
▁antibody
▁decisive
income
has
▁Coff
▁Click
▁passionate
▁HD
▁Pu
▁glue
▁slaves
▁Listing
▁developer
stop
▁verification
▁UV
▁Xi
▁padd
▁Wilson
▁rhetoric
▁sciences
▁steering
▁rejection
tha
▁diary
▁insists
40
▁MR
▁Eddie
▁subjective
ju
▁Yi
▁ot
▁Milan
▁Nature
▁panels
▁jeopard
operation
▁partially
▁grains
▁deserved
▁relieved
▁celebrated
▁consistently
vial
▁Cit
▁Hay
▁dresses
▁annoying
ivia
▁Town
olation
▁47
▁spit
▁soviet
▁Southern
▁disappointment
18
▁46
oting
▁Pope
▁patron
▁concess
▁reasoning
▁priorities
▁apt
▁sid
olate
▁Lew
▁merit
▁viral
▁curves
▁Cas
▁Anti
▁Carter
oplasm
▁unbelie
▁toxicity
-20
▁phon
ordinate
▁Northern
▁graphics
▁railroad
▁selective
icism
▁hath
▁unve
osphere
rolling
▁deemed
▁Against
▁gardens
▁thereof
▁orch
▁Sleep
missions
▁screens
▁insulation
amics
▁stan
ucking
▁drainage
rived
oscopy
▁Prepare
otomy
▁hepatitis
think
▁scrut
▁Account
▁diplomacy
▁circumstance
▁MA
space
▁cured
▁snack
▁Electric
▁Kent
Gen
city
▁tsun
▁Ident
▁ninet
▁setup
▁Material
▁sickness
▁apoptosis
▁determines
▁blunt
▁obsessed
▁prototype
▁CON
▁bait
▁Democrats
month
phase
▁experiencing
oklyn
entric
▁neighbours
▁scrub
▁exhibit
▁travels
▁hormones
▁dysfunction
▁Osc
▁proposition
▁chemotherapy
▁feast
▁upright
▁disturbing
orial
▁Niger
iene
▁Helen
▁sensation
▁envy
▁Makes
▁tutor
▁proport
▁transit
▁watches
▁insufficient
▁traditionally
▁Thous
▁gauge
hejiang
▁Couldn
▁Fucking
irs
▁caring
▁lesions
imic
▁legitim
▁austerity
▁conspiracy
▁Took
▁females
▁oriented
pm
▁Ros
▁lid
▁shifting
rett
▁Fab
▁rebel
▁Strate
▁charging
usc
adel
ughty
▁booked
▁exclus
▁conversations
abling
▁allev
▁indef
▁poorly
ovo
▁az
▁magnitude
▁requiring
▁guarantees
▁vocabulary
▁Ni
▁Line
▁weed
▁spacecraft
▁Mum
▁cylind
▁adopting
▁motorcycle
ez
rod
rophy
▁vigor
▁guiding
pres
▁ape
▁caf
▁olympic
▁specialty
▁succession
vi
inence
▁evolutionary
▁wires
ometown
▁torch
▁Carrie
▁summarize
▁Boss
▁verb
▁Steel
▁spoon
▁IMF
▁bunk
▁embod
▁Digital
▁physician
▁organisation
▁organizational
cos
ugs
banon
cible
▁WANT
▁jesus
igo
othy
eez
▁spider
▁inconven
▁Following
▁cler
▁amate
▁comply
▁nickel
chloride
▁incoming
▁governing
▁esoph
▁builds
▁refined
etts
▁Agree
▁petty
▁Rot
▁lust
▁cance
▁Fortunately
▁identifying
unci
▁whistle
▁Learning
▁coding
interest
▁variations
owl
▁Glad
▁Integr
▁teenager
▁Eventually
oken
dehyde
his
▁bypass
▁christian
More
▁Pack
▁Girls
▁maneu
▁honored
▁fixation
▁targeting
▁catalog
▁believing
▁desirable
▁yo
eches
riages
oca
andong
▁Karen
▁prick
▁optimized
▁liberation
▁dispar
▁escort
▁parked
▁yelling
bury
▁purely
▁smoothly
▁Bor
undred
ylvania
▁ingredient
▁HT
▁Happ
▁relay
▁stern
▁exploit
▁Stone
▁coins
▁percept
▁Ping
▁cleans
▁twitter
aeda
▁Influ
▁smugg
▁lively
▁february
▁slowdown
▁tensions
▁preference
▁Sear
▁Germans
▁pacific
▁Crit
▁Meet
▁Requ
▁robbed
▁gaining
▁indexes
▁Live
▁semicon
▁stuffed
▁interval
▁complaining
▁observations
▁awards
▁libraries
▁refres
▁boiling
▁contempt
▁verified
hman
▁Sug
ciples
▁adren
▁unlock
oelectric
▁kidnapped
▁GET
▁Code
▁gosh
▁peasant
▁refract
▁portable
▁hemorrhage
▁gad
iasis
▁goose
▁widow
▁endure
▁bidding
▁residue
▁occurring
▁posterior
specific
ochemistry
▁forgiveness
▁stimulation
▁Ru
Even
▁dive
▁crank
▁marvel
friendly
▁grandpa
▁limitation
lob
quer
▁prud
▁Language
▁cracking
▁explaining
amas
▁McG
First
▁boil
▁abrupt
▁adhere
▁platforms
▁seeks
▁Answer
▁fights
oda
▁GM
ptide
▁Farm
▁biom
▁bugs
▁Swiss
▁Manager
▁eyel
▁remed
▁nationality
▁championship
▁rehabilitation
umbar
▁poker
▁defending
▁spontaneous
▁Sin
uddle
▁unch
▁courty
▁begging
▁receiver
▁Wei
▁bos
charge
ortune
▁sadness
▁hometown
▁Late
▁Russians
▁consumed
▁informal
▁referring
▁olive
▁bending
▁IV
oubtedly
▁necklace
▁nutrients
▁disturbance
▁AG
▁Sep
▁nephe
▁sulph
▁colony
▁terrific
pack
zech
essim
▁fountain
▁activation
▁frustrated
▁tam
ships
▁cripp
▁ker
ichigan
▁edible
▁tuberculosis
▁polys
▁psycho
▁consultant
arre
eenth
▁Members
▁SS
etition
▁pupils
▁arriving
▁creditors
▁bosses
▁Forgive
▁metropol
▁Ple
▁tribal
▁occasions
achus
▁Cass
▁puff
itives
▁motel
▁delete
▁redund
▁ripped
▁Nowadays
▁guts
▁hobby
▁proxim
comp
▁Prim
▁Behind
▁Square
▁rumors
graduate
▁possessed
▁teenagers
ogging
▁bands
▁resonance
▁myocardial
anded
▁bias
▁Poland
▁methyl
▁martial
▁observers
▁digit
▁cherry
▁colonial
▁Barb
▁considerably
hill
▁cass
▁doubled
▁consisting
▁jazz
▁trades
▁integrate
▁investigations
▁iod
▁knot
▁ventilation
udan
▁WTO
▁lever
▁binary
iliation
▁Stephen
▁willingness
▁ted
screen
▁traded
ilingual
▁cocktail
▁scholarship
▁unse
▁midst
▁hypocr
▁selecting
▁vegetation
▁Las
▁reef
▁backwards
▁compliment
▁controversy
auer
▁jade
▁thieves
▁winners
▁deployed
zona
▁implies
▁combines
▁confined
25
▁belonged
▁altered
▁circuits
▁countless
▁countermeasures
▁Lunch
▁pigment
▁systemic
▁bald
▁stap
▁debug
▁supervisor
▁restructuring
aman
▁dash
▁prompted
adow
▁flock
▁anchor
▁nephew
▁explored
▁stretched
▁prosecution
▁reproductive
90
ioned
▁cozy
▁curb
resistant
▁diffusion
▁Review
▁Officials
▁GU
▁Rain
▁flames
▁fitted
▁Population
ocus
▁limbs
enezuel
▁fertility
▁singapore
burgh
driven
▁Treasury
▁pneumonia
odium
▁ambig
▁squir
▁Tao
▁wow
▁incomes
▁italian
▁Beat
▁Duke
ivable
▁greek
▁contradict
▁networking
namic
▁suites
▁consultation
▁41
▁gdp
ariat
▁insol
▁Compan
▁oppose
▁acoustic
▁Guangdong
▁Switzerland
ruit
ceans
▁oscill
▁pedest
asonable
▁someplace
▁Corn
▁scent
▁merchand
▁starving
▁stunning
▁reasonably
▁coma
▁Cru
▁Harr
▁aust
▁stare
▁outrage
▁teaches
▁incomplete
▁vo
▁sinus
▁buffer
▁hardest
▁expectation
Sh
ussels
▁impat
▁hepatic
ocal
acial
▁agrees
▁lasted
▁relaxing
ieval
▁oils
▁energet
▁Shakespeare
gets
robe
▁HERE
▁hooked
▁shirts
▁alg
▁Emma
▁valves
sole
▁aux
▁Iraqi
▁crowds
▁antioxid
▁extending
▁evaluating
idth
▁HIM
▁seize
ryption
▁monument
▁addiction
▁detention
atar
helle
▁Fast
▁crab
▁exqu
▁Environmental
ardo
limited
▁cracks
▁damaging
▁geometry
▁dick
▁Coffee
▁sailing
▁delivering
esse
rell
▁Amanda
▁adapted
▁enlarge
▁calories
▁motivated
▁automation
▁Heaven
▁gastro
igm
▁rang
▁crypt
▁diarr
▁treats
▁infarction
▁motherfucker
▁slack
▁Outside
▁quarrel
isan
▁Tun
geois
metic
▁shen
▁Surely
▁printer
▁Speaking
▁Fat
▁circus
▁tomato
▁elevated
▁saturday
▁researcher
text
▁halt
▁suited
▁secular
▁Jacob
▁tokyo
▁acry
▁nost
▁academy
▁operative
▁inadequate
▁concentrations
▁RIGHT
▁considers
▁intercept
oler
aceae
▁Snow
▁prone
▁Gordon
▁exterior
▁biz
▁Base
▁Hind
imedia
▁Dream
▁plague
▁poster
lon
▁Agency
ulators
▁malaria
▁flooding
▁renminbi
▁appreciated
China
▁Betty
▁erupt
▁sensing
▁pardon
▁upload
▁Support
▁operates
▁exceptional
▁neon
▁texts
ativity
rocess
urious
▁unwilling
ocar
▁paran
▁impart
▁picnic
▁empirical
▁Gall
achusetts
▁aviation
▁collateral
-5
▁Occ
▁lact
▁whit
▁providers
▁Hawaii
▁restoration
ACK
agan
▁Chin
▁mercury
▁prevents
▁belonging
▁administrator
▁Balt
▁Motor
▁jelly
▁veins
▁corpse
▁holder
▁infants
▁inappropriate
▁Hal
▁Liter
▁slump
▁Zealand
lict
▁Cole
▁Madame
▁angles
▁cartoon
▁formerly
▁purity
iche
uture
▁burgl
▁tricky
▁renewed
▁thyroid
pol
▁0.05
▁edit
▁sniff
▁exotic
▁Arm
ohyd
ucks
▁Bart
▁carved
▁DR
▁nurt
▁metres
▁streams
▁attractions
▁convergence
▁alternatives
▁buys
▁Fourth
▁strateg
▁Together
▁Len
▁bleed
▁voluntary
▁TA
▁tranqu
▁valued
▁entities
▁condemned
▁equipments
ova
▁64
▁clues
▁mobil
▁dissip
core
▁Rus
▁Stu
▁Years
▁dolph
▁races
▁sphere
▁viable
▁ranging
▁updates
▁32-
▁sting
▁clause
▁NC
▁dur
▁rental
▁mentally
▁Soph
▁cycles
▁Indians
▁smallest
▁glam
▁dwarf
▁congest
▁Products
▁machining
▁intestinal
▁PS
▁Lucy
▁Sales
▁calculations
▁pussy
▁harness
▁soybean
▁prosperous
▁Feng
▁ABOUT
▁strang
▁claiming
▁finances
▁realizing
orb
▁glo
▁Bruce
▁hosts
▁rebell
▁wilder
tem
▁km
▁mortg
▁runner
ieth
▁apps
▁outline
▁enhancement
▁peer
ustain
▁accessories
▁systematically
▁tribes
▁monkeys
▁pancreat
table
▁mell
▁Wonder
▁bronze
▁colours
▁EM
school
▁Laure
ynchron
▁Restaur
prot
▁Penn
14
mel
▁BC
▁PV
▁hex
▁distracted
▁frustration
▁lu
▁sne
mouth
▁antit
▁fuels
▁inert
▁daylight
▁destroying
▁ze
riel
owers
iatric
▁Services
har
abed
▁Course
▁affirm
▁condens
▁gradual
▁Ho
▁organism
▁autonomous
rec
▁Body
▁feudal
▁potent
▁containers
▁fingerprints
▁unb
▁Told
▁diabetic
▁dominate
▁competence
▁OR
inant
▁puppy
▁lightly
▁incorrect
▁contractor
▁commitments
▁Recent
▁faculty
▁invalid
▁slowing
▁Generally
▁criticized
▁manipulation
TR
▁marble
odynamic
▁bombing
▁crystals
aceous
▁Suites
▁Firstly
▁mutation
▁proceedings
▁cardiovascular
iciary
▁boiler
▁unload
izzy
▁hoo
▁Lisa
▁nour
▁evolve
▁petrol
velength
aya
ucked
▁seasonal
▁splendid
▁campaigns
▁accountant
▁Hallow
▁Remove
▁cuis
Finally
▁Copy
▁Multip
▁Nearly
cost
ousy
▁SD
oria
illes
▁coco
▁foll
▁yoga
▁viscosity
▁originated
igenous
▁blonde
▁solely
▁conting
▁suitcase
▁emphasized
bands
▁void
▁Speak
▁Buddha
▁Seattle
▁verdict
▁enhancing
▁destructive
▁Tob
▁pets
raphic
▁Above
▁chew
rators
▁armor
▁fetch
▁Disney
group
▁logo
▁pige
▁sleeve
▁Justice
▁positively
ppy
▁gulf
▁trousers
▁1.5
▁praised
▁Fran
▁semester
▁elig
▁lame
▁enact
▁listing
▁multinational
▁neglig
▁declining
▁hierarchy
hab
▁NASA
▁mounting
▁instances
▁pollut
▁teenage
▁bip
found
vious
▁ruler
▁judged
▁activists
▁relaxation
▁reportedly
▁coordinates
▁constructing
▁pix
▁Grace
ifiable
respect
▁cheated
▁busted
▁leakage
▁cultivate
▁regression
hedral
▁penis
▁stared
▁authentic
▁Age
▁Lat
▁Rap
erers
▁tapes
▁supern
▁desktop
▁Says
▁Fresh
▁islam
profit
▁psychic
▁PH
▁bacon
▁locals
▁turbine
▁Medicine
▁Shenzhen
▁filtering
PD
▁Front
▁varying
▁Lyn
▁closure
▁stabbed
uma
▁Anth
▁Boys
▁Josh
▁Culture
▁utterly
▁Sergeant
▁aggression
▁Laura
▁peers
perature
▁judging
▁monopoly
▁sexually
▁Drink
▁|
high
occup
▁Companies
▁launching
▁propaganda
▁obstruction
thew
▁hemat
▁pessim
▁minimize
▁secretly
▁singular
▁choo
▁whip
▁incap
▁tales
▁vicious
anke
gium
annel
▁shrimp
▁painter
odd
izhou
▁Garden
▁packet
▁Starting
▁remarkably
▁counterparts
▁eco
estine
▁Ain
▁swamp
▁devastating
opy
▁Jing
▁LIKE
urgical
▁outlet
▁prophe
▁credible
▁Vice
▁Nobel
▁disin
organic
▁strive
▁addressing
cile
osaur
▁merger
▁senate
▁implicit
▁adsorption
▁compensate
▁expenditure
▁Guard
▁Donald
▁margins
▁52
▁athe
omical
▁stove
▁polish
▁wildlife
▁responding
▁Tong
▁hurried
▁drawings
▁courtyard
▁atmospheric
▁gaze
▁sway
anting
urches
▁formul
▁mandate
▁arbitration
▁mesh
▁biscu
▁garment
▁Thinking
▁downward
LLY
▁ES
▁hears
▁wired
▁assisted
▁Lang
igraphy
inarily
▁ratings
▁tsunami
▁aggregate
aco
jan
site
▁asymm
▁undergo
▁carriers
▁contamination
page
ulence
▁trailer
▁terrified
annah
▁fiance
▁accumulated
roke
▁lent
▁Pearl
▁remedy
▁conquer
▁Division
▁republicans
eat
pen
▁Sid
▁Going
reatment
▁successor
rets
▁plural
▁poisonous
▁correlated
Iy
▁SM
reek
uther
▁aids
▁scales
▁translated
▁ga
width
▁sigh
▁compatible
▁911
▁decay
▁modules
▁CF
Through
▁eb
moil
▁assay
▁garlic
▁ornament
▁cellul
▁cortex
▁baggage
▁rubbish
iaz
▁DE
late
▁Shi
ecting
▁ecology
▁courtesy
▁ambitions
▁ruth
▁solemn
▁dentist
▁COM
▁ost
▁cath
▁sized
▁stance
▁followers
▁inspector
isle
▁Wake
aments
▁Jenny
▁comf
▁ripe
▁evapor
▁perfume
▁Thousands
▁acupuncture
▁disadvantage
▁Gets
▁Luke
▁eighth
▁sliding
sa
opia
▁Sydney
▁bib
▁animation
▁suppress
▁roommate
▁buses
▁reset
▁reminder
▁Wanna
▁allegations
▁72
mart
cribe
▁ditch
▁taxation
▁blackmail
-19
althy
▁Gotta
▁stems
▁pollen
▁scramb
▁waiter
▁simplicity
▁telecommun
▁Sky
▁exh
▁Sara
▁brow
▁multilateral
▁Cuba
▁Orig
▁bass
portant
cellular
▁reconcil
▁volcanic
▁Currently
▁stink
▁openly
▁confusing
▁HB
▁coated
▁wavelet
▁optimism
▁nin
▁pains
▁lottery
▁Corporation
alg
allas
▁Marg
▁Nancy
▁speakers
▁eman
▁corridor
▁maritime
▁inflammatory
kill
▁cakes
▁lunar
▁cheeks
▁paraly
▁clusters
▁Eh
▁Opp
ogical
▁cited
▁metallic
▁grocery
▁inspire
▁democrats
▁volcano
▁enlighten
yler
▁qing
utable
▁Represent
▁SW
educ
leans
pherd
▁THINK
▁kernel
▁Twenty
▁contag
▁geography
▁functioning
tles
lotte
▁embryo
▁accelerated
due
▁slog
▁irrad
▁tread
▁placing
▁researching
▁contradiction
ONE
▁HR
▁tray
▁posed
ailable
▁quoted
▁shells
▁emphasize
▁territorial
▁ii
▁marker
▁overth
▁theirs
▁bourgeois
AND
▁Ye
emet
plan
writer
▁Mediterranean
Our
▁Woman
▁smarter
▁highlights
olith
▁eagle
▁resil
▁roman
▁rescued
▁resting
▁turmoil
ORK
Once
▁viv
▁Pent
▁Forest
▁Potter
▁disarm
▁expressing
esar
▁700
▁Aah
▁Lex
▁Sav
▁Diff
▁Text
itches
izable
▁Turns
▁archae
▁origins
▁predomin
▁boast
▁schiz
▁rebuild
▁questionna
bons
qual
ennis
▁Catherine
▁unpredict
coat
week
▁viewing
▁tolerate
▁pulls
▁boarding
▁maintains
▁replacing
mill
▁Bec
igious
▁Daily
▁Terry
growing
70
unks
leness
▁Dragon
▁Simple
▁heroin
▁refund
▁workplace
▁Spr
▁ordering
▁attachment
TP
opic
▁Hear
▁clot
▁spoil
▁oceans
words
▁ceremon
▁°
▁beats
▁cables
▁intrig
▁impacts
▁Valentine
▁Tu
hard
odox
▁clam
▁eyeb
▁Robin
▁helmet
▁decreases
cs
rition
▁amuse
▁Prepar
yi
roup
ibbean
▁surpass
▁Cambridge
▁privately
-6
Ab
trans
raviolet
▁dilemma
▁Europeans
▁perimeter
odynam
General
gression
▁satellites
ollar
▁Marine
▁learnt
▁collector
▁desperately
▁gown
amation
▁Seeing
▁Hundred
▁Meeting
▁shipped
▁chickens
▁Halloween
▁Constitution
uded
▁Zhu
▁gon
arians
▁Multi
▁flush
essional
▁enzymes
▁symbolic
▁Establish
▁continually
chi
meal
▁Oliver
▁defines
▁wonders
▁disturbed
▁incidents
▁undermine
▁capitalist
▁unemployed
ousing
▁consistency
▁CL
▁punk
▁winding
▁fortunate
▁Maria
▁doomed
▁Restaurant
▁complication
▁prayers
▁Standing
▁marrying
▁anesthesia
prop
▁Total
▁fibre
▁discourse
orical
▁wines
▁reflex
▁killers
▁Egyptian
UL
ervice
▁alibi
▁crunch
▁honeymoon
▁possesses
berries
manship
▁Dinner
heastern
▁distortion
▁MC
▁Radio
▁undertaking
▁preservation
▁160
▁Won
▁stark
▁donors
▁speeds
▁terrain
▁illustrate
▁supposedly
▁negotiating
▁1996
▁thirsty
▁Pra
▁naive
▁Howard
▁celebrating
200
inois
▁Rout
▁noisy
▁mammals
▁newborn
▁volumes
▁airlines
▁altitude
▁injected
alo
▁towers
▁neglected
▁safeguard
▁rans
▁slot
▁Libya
▁simulate
▁prolonged
▁philosophical
oil
post
▁Sant
omorph
▁thigh
▁creepy
▁antigen
▁guardian
▁triangle
▁congratulations
ollen
▁peanut
▁athlete
▁bureaucr
lav
regn
▁Oxford
▁franch
eyed
▁esp
ococc
oidal
▁1995
▁olig
▁james
▁shoots
▁waking
▁antagon
▁procure
▁prostate
▁featuring
▁organizing
▁Foot
▁pest
▁Lewis
▁peter
▁impair
▁reckon
▁pouring
▁portrait
raham
▁Madam
ourable
oneliness
▁inviting
▁compelling
tor
▁Arsen
▁Const
▁smiles
▁wu
ophren
▁rains
▁liable
▁promotes
▁consolidation
fi
▁quo
olding
▁fabulous
▁plastics
▁interviewed
▁EX
▁grind
▁Miller
▁timber
▁deciding
▁electrons
▁transient
▁reflecting
iII
▁MD
athon
▁bulb
▁spar
▁Choose
▁Success
▁therapist
▁qualitative
sha
▁PP
date
gone
istence
▁tracked
▁affordable
▁imperative
▁49
▁CEO
▁unle
▁ester
▁Sweden
▁cooler
▁fellows
▁filters
frequency
▁mutually
▁Lower
▁Amazon
guard
▁arena
▁Doctors
▁Shouldn
▁Flu
▁motors
▁salesman
▁speeches
▁arbitrary
psy
▁Cab
▁Beck
▁Order
▁computation
▁economically
bies
▁cla
▁raz
umping
▁william
voc
icidal
▁greed
▁medieval
▁classmates
▁Ec
from
ustomed
▁compuls
▁ensures
▁assembled
▁ashes
▁ridge
ersonal
▁storms
▁pumping
▁sentenced
Se
▁TE
otal
uman
▁touches
▁databases
▁Interstate
▁Nine
venous
▁Basic
▁Gibbs
▁rewards
▁shifted
▁Agreement
▁substantially
ropy
▁Safety
clerosis
▁Windows
▁Patients
▁meditation
-8
▁Papa
▁stakes
▁clarity
▁Lot
activ
▁Dere
bearing
▁hyster
13
icating
▁temporal
nish
▁xin
venile
▁arith
▁regeneration
▁lur
▁neph
idering
▁adopts
▁alternate
dem
only
▁ery
▁nicely
▁phases
▁propagation
▁Hom
azole
▁banana
valuation
▁sweeping
▁medicinal
▁telescope
xia
hdad
jamin
osexual
▁Supreme
▁Governments
▁formally
▁limiting
lee
▁ER
onin
amins
▁magnesium
▁precipitation
htub
▁1994
▁2014
▁erad
▁Summer
▁traject
▁Bos
▁Bond
reated
▁messy
▁Kennedy
▁superiority
▁54
nels
▁diving
▁Promise
▁rotating
inous
▁cocaine
effective
▁Political
illin
▁wilderness
▁exclusively
▁ions
▁Foundation
▁permanently
▁Till
▁metaph
boards
ennium
▁altar
▁exams
▁rotten
▁accounted
▁resignation
▁appraisal
issa
▁wig
▁peng
▁thorn
▁livest
▁Brooklyn
pple
▁spectrom
▁comprises
▁sincerely
▁purification
▁cott
▁cran
rophot
▁fifteen
▁homeland
▁rainfall
umbs
▁pou
▁Moon
▁ench
▁extends
▁defining
ril
▁Boo
▁Cover
▁leuke
▁smith
▁regulator
bc
▁artic
raz
ocular
▁cowboy
▁lethal
▁sculpture
▁hatch
▁Temple
▁clinton
▁EN
idine
▁pend
▁relies
▁offspring
▁regulated
▁Parliament
▁undoubtedly
feed
▁sib
▁Term
ositive
▁depict
heads
sl
▁cups
▁powered
▁shouting
▁glaci
▁stalk
▁affili
othermal
▁aluminium
▁paradox
▁Facebook
▁undergoing
loy
▁Houston
▁functionality
▁slap
▁Parker
▁ginger
▁racial
▁likelihood
▁scor
▁Employ
▁kindly
▁situated
fat
▁sire
▁yeast
conduct
▁Arabia
▁giants
▁retrieve
▁battlefield
stock
oppler
▁1,000
▁resur
▁ruins
product
▁cuisine
▁ib
▁Sean
▁monk
▁frames
American
▁Phoenix
▁Tibetan
▁needing
▁gradient
16
▁renown
▁Inspect
▁autopsy
▁springs
▁frontier
iki
usp
flamm
▁Polit
etrical
▁loudly
▁Taliban
▁Toy
icken
erated
itious
▁funded
▁Manchester
▁casualties
▁Leo
▁vas
▁adul
▁vitality
▁youngest
▁raid
▁shiny
▁richer
▁endorse
▁pursued
▁solitary
▁electoral
▁traumatic
▁undercover
akh
asse
▁SHE
iches
ophil
houses
payers
▁arrogant
▁Alexander
▁disclosure
▁compromised
▁vet
▁Sports
▁barack
▁occupy
▁soluble
▁elbow
▁ferry
▁divisions
▁emotionally
▁shareholder
▁mary
icides
unning
▁Assist
▁messing
▁beverage
▁hurricane
eded
aders
rades
▁inac
▁Paper
▁aiming
▁tires
▁knocking
▁Attention
▁cm
wave
urities
children
▁notably
▁sewage
▁Executive
▁Technical
▁contaminated
▁authentication
▁Magn
▁goddess
▁surroundings
▁2015
▁overload
▁poisoned
▁scenarios
zan
▁raped
enhagen
▁fluids
▁mistress
▁releasing
▁inhibition
agus
▁ingen
▁livestock
▁fingerprint
itol
▁vin
▁Init
▁Upon
▁Golden
▁geographical
▁disadvantages
▁Coast
▁deeds
▁Beyond
▁disput
▁Victoria
▁illustrated
▁reproduction
aters
which
▁prophet
▁wavelength
▁Create
▁logging
▁amongst
▁bathtub
▁threads
eer
ffe
▁spike
▁wrink
▁postoperative
ECT
hot
▁Fa
▁brig
▁pearl
▁easing
▁Production
▁accommodation
have
mble
▁beams
▁coral
▁decomposition
▁Iranian
▁broadly
▁appearing
▁confessed
▁participating
▁Bing
▁unin
▁pause
itone
▁wells
▁Former
▁Muslims
▁inhibit
▁strengths
▁superficial
fund
▁aster
emetery
▁editing
▁straightforward
udes
olite
▁Crim
▁Greg
▁crane
▁centres
▁explode
▁autonomy
ustainable
▁wandering
Many
mann
▁civ
▁periodic
▁irrelevant
▁Member
▁catastrop
▁renewable
roe
sin
yuan
▁190
▁thrill
▁spreads
▁recycling
▁retailers
▁51
▁labels
▁candles
▁cafe
otypes
▁pathway
▁traitor
▁III
▁delta
▁underw
▁beaches
▁exploded
-0
commun
minute
▁jointly
▁outward
▁spanish
Ind
▁Anton
▁baked
▁lousy
▁Franklin
▁discrete
▁increment
▁innocence
▁confronted
▁Conc
▁whir
▁Scarlett
▁automated
▁han
▁obl
▁Derek
▁deform
▁pirates
▁petition
▁referend
▁dw
▁Jay
▁tram
▁armies
▁pilots
▁founding
▁hesitate
▁stresses
▁legendary
Mr
pical
▁misf
▁Teddy
▁manages
▁parliamentary
vic
▁aver
▁Higher
▁admits
▁projection
▁elimination
▁Rail
▁sulfate
ellar
leading
▁upcoming
▁Grad
▁feeds
comings
forcing
▁churches
udy
they
▁bou
▁perv
▁navig
▁seated
▁condemn
▁distribute
PP
▁beet
▁shred
▁grands
▁sympathetic
ede
inqu
▁ONE
uckle
▁fade
soever
▁Easter
▁slowed
▁handles
▁appealing
▁Heat
▁Nathan
▁frankly
▁resigned
▁litigation
▁preventive
▁foundations
▁wagon
itching
▁backyard
▁congenital
▁Ka
▁Lf
▁fuss
▁Tyler
▁curing
▁annually
▁merchant
▁vaccines
▁similarly
▁disposition
▁brew
▁positioning
▁rav
▁retard
▁Exchange
▁preparations
▁bart
▁peach
▁Winter
▁indigenous
▁connotation
Using
▁Empire
▁surprises
▁unl
encer
▁Palace
▁whales
▁alcoholic
▁adaptation
▁Kh
adesh
▁fabrics
▁releases
▁Navy
▁grie
▁traced
▁weakened
▁subjected
▁businessmen
ERS
▁Tele
▁yarn
upiter
▁locks
▁betting
▁Investment
▁56
▁exquisite
▁credential
▁decreasing
insic
▁Andre
▁Silver
▁aggrav
▁influenza
▁substrate
▁iP
▁picks
▁Emperor
roscopy
activity
▁extensively
▁semiconductor
ART
Most
feit
▁Wolf
▁sten
▁babys
▁tibet
▁titles
▁transfers
ochond
▁Williams
len
amide
▁abdomen
▁tactical
▁Investors
▁applicant
▁prohibited
arms
mitt
▁Aunt
▁nano
▁tant
▁revised
OUN
fil
uang
umor
▁Fem
▁Buddhist
▁ignorant
▁phosphate
▁encourages
▁thoughtful
▁merchandise
▁demol
▁drowned
▁incompet
uana
▁ire
▁salmon
▁bizarre
▁noodles
▁initiated
ubar
heimer
remlin
▁relic
▁Around
▁permits
▁feathers
▁contacted
▁fragments
▁EL
cutaneous
▁vigorous
▁eliminating
▁acceleration
▁Ori
ongyang
▁Teaching
bei
▁wolves
▁amateur
▁priests
▁cheerful
▁tops
▁Angela
▁Basically
▁ventricular
bul
▁GPS
▁tore
▁skies
▁habitat
▁deflation
▁supportive
▁meg
▁rulers
▁boxing
gregation
▁arteries
▁developmental
▁Jam
▁hairs
▁filing
▁lowered
▁Military
asso
▁Fox
names
ridge
▁swell
▁robert
▁veteran
▁dictators
▁judgement
▁schizophren
▁BM
▁Box
▁Fel
▁hij
▁dazz
▁corne
▁dislike
▁Chairman
▁clan
▁recipro
▁bachelor
▁offerings
▁Ls
▁Alf
▁biopsy
▁featured
▁skeleton
▁Davis
▁suffers
this
▁proving
▁linguistic
real
▁hamb
▁Optim
▁Albert
▁sharks
▁earthquakes
▁burd
angered
▁lumbar
▁skinny
▁humidity
▁midfield
ysical
▁Moses
ulously
▁damned
▁vulgar
▁imperfect
▁Urban
▁runway
▁assurance
anmar
graph
▁Sudan
▁cocoa
ulatory
▁Ts
iping
▁owed
static
▁hopeful
acerb
▁borne
▁lipid
▁scenic
▁excuses
▁Question
▁Policy
▁voyage
▁Somehow
▁Tool
▁sect
▁Separ
▁theore
odynamics
▁satisfying
white
▁alex
worthy
▁assumptions
rac
▁Jere
▁furious
▁Personal
▁nutrient
▁hospitality
urry
▁stamps
▁fairness
▁illustrates
▁53
▁58
▁Inv
▁Level
▁Avoid
retched
▁locally
PR
cock
illery
▁grease
▁protects
Under
▁chaotic
accharide
▁temptation
▁shortcomings
-7
SS
acre
atter
ciple
olley
▁Tess
▁Islands
▁sealing
▁Understand
▁multimedia
tingu
isphere
▁snakes
▁inserted
▁weekends
▁Build
▁floods
▁bothered
oft
erenn
▁syll
▁Impro
▁meanings
▁palestin
▁Saw
unken
▁unim
▁Intel
▁counselor
▁vow
▁tasty
▁holdings
▁practiced
ozo
ylum
opping
▁turtle
uffle
▁herd
▁sham
▁Knock
▁griev
▁cookie
▁verbal
▁booking
abe
▁Fear
levance
▁unlimited
▁kidnapping
▁Gary
▁Yanke
▁cramp
▁snacks
▁notable
▁amendment
wait
heres
▁algae
acterial
▁browser
edi
avil
otid
engine
▁Quiet
▁rocky
▁chooses
usk
▁logs
▁zomb
▁charts
▁canceled
▁Transport
▁documentary
▁Chi
▁Works
▁adviser
▁attributed
arc
inis
▁fetal
▁parole
▁centrif
▁subscri
▁harmless
▁maneuver
▁Community
▁comparable
ORE
ech
erc
five
▁ANY
▁modem
▁varies
▁depreci
atization
▁HK
▁Rio
▁bounce
▁anticipated
▁formulation
▁manifestation
Cl
velt
heter
itored
▁hockey
▁Defense
▁exacerb
▁premise
▁Manufact
▁Software
▁engaging
▁fireworks
odka
▁Bed
uscript
▁Zhou
▁cache
▁clarify
▁naughty
▁migrants
▁promptly
▁Argentina
luent
▁chore
▁spear
▁prosecutor
hov
▁ecc
▁nag
▁landmark
uri
▁gras
▁Growth
▁thrilled
▁horr
▁salv
isations
▁paranoid
▁remembers
▁advancement
asha
licted
▁swore
▁methane
▁pavement
▁instincts
immer
atable
▁deviation
▁enthusiastic
▁comed
inted
▁tenth
▁fellas
erential
▁obscure
▁tougher
▁gor
▁hats
▁ribs
▁Funny
▁Oscar
▁consecut
▁enabling
cod
▁Einstein
▁smug
▁extrav
▁torque
▁simpler
▁Property
oore
seIf
▁swine
▁Colomb
▁halluc
▁mister
▁tended
▁justified
olin
▁cuc
elson
▁categor
▁markers
▁premier
▁beautifully
▁calibration
▁neighboring
▁certification
▁theoretically
aval
▁cohes
▁dosage
▁Running
▁conceal
▁shouted
▁vanished
circ
icker
▁Tower
▁chron
▁Knowledge
▁legitimacy
▁bri
▁begg
▁typh
▁baking
▁camping
▁chiefly
IND
▁sie
▁profiles
▁Arctic
▁banker
Well
▁Diego
▁ringing
▁Normal
unciation
▁examining
▁repairing
▁Experience
▁appliances
amel
▁dru
▁Spirit
▁regulating
▁constituents
▁LD
ippi
▁hut
▁Wish
▁ants
▁pools
▁amazon
▁spleen
▁Parents
▁dancers
▁trivial
▁withstand
arten
▁Lind
▁gren
▁Beach
▁twent
orescent
▁butcher
▁destined
▁structured
AB
Des
▁lex
▁budgets
▁revealing
▁loneliness
▁mathematic
▁Jenn
▁shru
▁Molly
▁Buddhism
▁conductor
▁arithmetic
celain
imated
▁Cameron
▁Experts
▁Introdu
▁obliged
lit
onent
▁Gaza
▁heel
▁Section
ahn
obl
open
▁inaug
▁tempted
▁emulsion
GE
▁Allow
▁ballet
▁dissem
▁Reading
▁reversed
▁warnings
▁Ky
process
▁incision
▁protocols
▁ultraviolet
ATE
tled
▁Rights
▁anatomy
▁dispersion
▁sarc
▁Wayne
▁minus
▁merits
▁Connect
▁arising
▁surveys
▁Practice
▁spi
eterm
▁tect
▁Autom
▁merge
▁wholly
▁ironing
▁sequences
▁Definitely
▁behavioral
▁volatility
▁Lam
▁abide
▁poses
▁amazed
-9
▁Aye
shire
▁odor
▁swap
people
▁Saint
▁hairc
▁careers
▁refuses
▁.-
▁raft
ointed
▁lapar
astically
CO
tze
flies
▁reper
▁greedy
▁smashed
▁tortured
▁worthless
▁manipulate
▁piv
▁hypot
▁conced
▁genome
▁entrust
▁heights
▁comrades
▁improper
▁segments
▁sporting
▁Electronic
eton
▁Hop
Other
▁subd
▁rotor
▁coarse
▁locking
▁orderly
sung
▁til
▁seals
▁minded
▁reorgan
▁interrupted
▁restriction
uli
▁blaz
▁notify
▁unpredictable
▁lure
▁denial
▁console
▁taxpayers
▁simplified
▁internationally
edge
ista
verb
▁Price
▁urinary
▁neurolog
▁irrational
phia
▁Ens
▁axial
▁norms
▁Training
▁benchmark
▁placement
▁sufficiently
idae
▁nec
▁bapt
▁libya
▁Likewise
mong
▁Hua
▁epile
▁throws
▁electroly
▁bac
impse
▁Carbon
▁rebound
▁fry
celona
▁mustn
▁heroic
▁dominance
▁monitored
stead
uously
▁bells
▁accuse
▁delays
▁glimpse
▁praying
▁raining
▁Lay
▁zhang
▁Somewhere
IVE
▁Pow
onium
▁enclosed
▁documented
▁nationwide
tz
gins
ycle
▁Les
acies
▁Imple
▁rumor
▁scout
restrial
▁energetic
▁associates
vity
frame
steps
▁Yunnan
▁abduct
▁Friends
epr
▁GR
▁pumps
▁saves
computer
▁mortgages
▁haem
▁Hamas
written
▁endangered
▁Champions
▁districts
▁Az
bath
bird
rices
▁grapes
irection
▁rendered
▁catalytic
▁restraint
▁Kay
▁eve
▁Push
▁antip
▁microp
▁Columbia
▁auxiliary
▁administer
▁Cert
▁Unit
▁Truth
▁arist
▁disintegr
▁transformer
onto
▁180
aults
▁tremb
▁submarine
aky
issippi
▁generic
▁antibodies
▁manuscript
breaking
▁encrypt
▁sinking
▁leukemia
▁optional
las
▁commem
sequently
▁intersection
▁GC
▁Jia
▁Ped
gebra
▁Banks
▁handic
▁Arsenal
▁preceding
▁Brend
▁severity
unal
▁Dex
▁crus
▁quake
▁sticky
▁adhesion
▁salvation
▁compressed
▁congressional
saving
▁doses
▁spouse
▁harvard
▁ischemia
▁generates
▁investigators
▁Virt
▁blink
▁Streng
▁danced
▁pledged
ogonal
mercial
▁pronounced
▁hydrochloride
▁focal
▁insur
estinal
▁Suppose
spot
▁Buy
▁cone
▁hose
▁Chile
▁breasts
▁audiences
Like
▁maize
▁relent
▁rooted
▁careless
▁innovations
▁nutritional
▁aI
▁Liqu
▁cyan
▁proc
▁optic
▁token
▁titanium
▁contraction
ario
▁Lan
owners
▁Bright
▁interfaces
▁Went
▁Coach
▁latin
▁onset
▁Lebanon
▁Intellig
▁randomly
▁genetically
▁PM
▁Rab
▁ample
lance
▁Dise
▁10,000
▁admired
▁arthritis
▁objection
▁chromosome
▁jug
prising
▁phrases
▁Multiple
▁cemetery
▁converter
▁Simulation
▁Diana
▁immers
▁wander
▁Responsible
▁1992
author
▁sights
atisfact
▁chicago
▁greeted
▁Michelle
▁landlord
▁applicants
▁highlighted
▁Euro
selling
▁retrospectively
atism
▁aort
▁Katie
▁moder
▁fragrance
▁Protection
▁24-
▁ECB
ionic
▁deed
ocated
▁barbec
▁detach
▁firstly
▁slavery
▁slaughter
▁competitor
▁certificates
▁Pain
▁rhin
arynge
▁Zhejiang
▁encryption
▁、
▁Camb
ifiers
▁Linda
▁issuing
wen
igma
brush
▁aven
▁melan
▁grandson
▁wen
blood
utors
▁robber
naissance
▁headlines
▁compulsory
▁recovering
▁contributing
▁Gates
holding
▁Carlos
▁fantas
▁themes
▁Univers
▁rounded
▁proceeds
▁accustomed
▁troop
▁Result
▁unreal
▁unbelievable
▁authorization
▁pm
▁DVD
▁Moh
▁coag
▁aliens
▁filthy
▁flooded
▁swallowed
uxe
rocy
▁quasi
adelphia
▁Specific
▁renowned
▁threatens
▁referendum
▁incorporated
keep
▁performs
▁fluorescence
illus
▁epidem
▁explosives
umed
▁chi
itous
▁Fish
▁Game
▁obed
▁inland
▁realise
▁pathology
▁workforce
▁expedition
▁scheduling
kn
▁Calm
▁Gard
▁Kiss
▁antibiotic
▁Ohio
▁richest
▁monsters
▁conceptual
▁weaknesses
▁subsequently
▁lia
▁Marie
▁perfor
enezuela
▁reckless
▁presenting
▁coil
▁pell
▁fungus
itudinal
▁kinderg
rays
itched
▁diarrhea
▁trajectory
morph
▁Cand
▁alpha
▁cancelled
▁automotive
▁validation
aned
▁coatings
▁juvenile
▁cognition
500
oks
chell
▁THERE
▁PA
igers
mount
▁Harm
▁fres
▁caffe
▁cushion
▁Cultural
▁ignoring
▁overtime
▁aesthetics
girl
sector
▁Kitty
inetics
▁deepest
▁Colorado
▁Luck
▁lime
americ
grounds
▁Knowing
▁inverse
▁disgrace
▁advocates
▁66
wart
▁mah
ospel
▁Sort
▁antid
▁sucked
▁motives
▁Christians
▁unreasonable
icky
▁nun
urned
▁sank
▁rainy
▁shave
▁Country
▁Performance
ollo
ienna
▁ripp
▁proxy
▁francis
▁eligible
▁vitamins
▁metabolic
ipei
▁pawn
▁bundle
▁plaint
▁discern
▁posture
▁consuming
▁oat
▁Past
▁buoy
icates
connect
▁crafts
▁donkey
dependent
▁alphabet
▁lowering
GF
▁pam
▁rim
▁info
▁deduct
▁ideals
lections
othelial
▁qualification
▁1950
etermination
▁liabilities
▁microscopic
▁AII
▁ipad
agnosis
ividual
ository
powered
▁chapters
17
▁Lost
▁issu
▁yach
▁durable
chet
▁pirate
▁hallway
▁intends
rue
ocate
write
▁Domin
▁cries
▁lesion
▁compartment
ucle
▁Thai
▁owes
backed
▁applause
▁Yao
ounces
▁Round
▁favors
▁mortal
▁quicker
▁unusually
▁predicting
▁Judge
▁recomb
▁hunters
▁globally
▁reactive
▁mandatory
pre
▁Deal
▁scalp
lasting
▁Credit
▁curved
AST
itos
▁defender
▁musician
▁retained
▁geometric
▁pud
▁ferr
oction
▁awaken
▁diagnose
▁prospective
▁confrontation
ocl
meter
▁Hait
fashion
▁rented
▁smoked
▁Matthew
▁linking
▁pragmatic
▁specimens
▁exceptions
fig
atories
▁immortal
▁neo
▁Ling
▁laden
▁extingu
▁forecasting
lical
orate
▁Honor
▁Wouldn
▁herbal
▁eccentric
ahu
dao
▁Bauer
▁devote
▁cereals
▁Margaret
▁fashionable
▁permeability
▁57
▁Dri
▁Poll
▁Speed
▁stroll
▁athletic
▁susceptible
qi
▁tossed
▁alignment
▁irresp
▁neuros
▁utilize
▁assessed
sol
▁ja
odia
▁glove
▁Princess
▁microorgan
▁constructive
HER
▁trif
▁merry
▁skate
▁steer
▁cannon
▁inhabitants
sche
▁Region
▁Search
▁Resources
▁subsidiary
▁coordinated
▁NY
▁GOT
▁patriot
▁bothering
▁digestive
▁obsession
▁participated
chy
▁outdo
▁sworn
▁disguise
▁minorities
▁compatibility
▁BL
▁dew
produ
▁imposing
▁Enterprise
Yeah
▁Rice
▁Heard
▁husbands
▁obtaining
▁peninsula
▁explicitly
▁extracting
ushi
ageal
ilage
▁Fang
▁underwent
▁individually
imore
gently
▁consecutive
▁holog
▁scroll
olecular
ependence
▁carbonate
▁considerations
▁eg
ptive
▁Spect
▁Arizona
▁Tianjin
▁ammonia
▁mattress
▁mosquito
▁realizes
▁uncommon
▁certainty
strong
▁android
▁Straight
grow
▁swed
cephal
inance
▁Norway
▁warmer
▁Measure
▁illegally
▁oversight
▁attracting
▁Hus
▁grin
▁ping
▁Monitor
▁Systems
▁wheelchair
omi
▁IL
▁Fle
▁Jos
phalt
▁Sally
▁texas
▁Nether
▁begged
▁depths
▁tribute
▁Hundreds
▁comparatively
▁CM
▁junction
sk
osaurs
▁bully
▁Couple
▁injust
▁refine
▁rupture
▁hostages
▁discom
▁shovel
▁banquet
▁israeli
DI
▁Hart
▁haul
▁fungi
▁pilgr
▁Ancient
rah
▁IBM
ethylene
▁observer
▁resemble
▁Pin
▁mul
uding
osable
▁ascend
▁coffin
▁thorac
▁dietary
▁vendors
▁donation
▁bandwidth
▁impatient
yu
bas
ecd
vous
▁Dim
▁adam
▁theor
▁spelling
▁catastrophe
▁fundamentally
▁accountability
▁1991
around
▁Smart
▁lamps
▁sabot
▁lesser
▁Grandma
▁contempl
▁struggles
ijuana
▁burial
▁specimen
▁associations
▁correspondence
Comp
▁1930
▁Dest
▁Sold
▁isolate
▁additive
▁squirrel
▁observing
ctomy
▁fren
▁scam
▁canvas
▁patents
▁notebook
icc
▁jin
▁Coal
▁isot
▁dragging
▁Confucian
▁amplitude
▁mcc
antis
otics
▁coex
▁heck
▁tomatoes
▁comprehend
▁constitutes
anas
▁Nep
▁crawl
▁engra
▁peaks
▁entries
▁summarizes
ouId
▁debut
▁overha
▁parcel
▁allegedly
▁furnished
▁healthcare
▁frequencies
Oh
ept
ulu
obil
▁Cant
▁Owen
▁sums
▁euros
▁trait
▁opposing
▁waitress
---
Not
coni
okes
▁Dow
▁Sound
▁masks
▁disast
▁embark
▁seafood
▁shelves
▁scrutiny
IME
▁Chan
▁Sent
▁unequ
▁skelet
olk
▁impet
▁sprink
▁aromatic
var
▁nov
layer
▁Sere
▁styl
▁Lucas
▁clone
▁colonel
▁shocking
▁vegetarian
phen
▁behold
▁hydrox
▁Premier
▁drowning
sex
▁Ess
rystal
▁revision
▁meaningless
FC
block
▁Therm
ecessor
▁muscular
▁Chongqing
▁Philippines
▁encouragement
▁5-
▁bile
▁cans
▁indo
▁stam
arming
▁newest
▁thrive
▁restart
▁excellence
▁spectrophot
TC
beit
gling
▁Auto
igration
▁Student
▁Function
▁admiration
▁playground
▁Bath
▁unite
▁sympath
▁coherent
▁forensic
▁imminent
▁Xu
▁Jesse
▁booming
▁offence
▁sponsor
▁tunnels
▁whatsoever
▁62
▁gm
▁Afghan
▁repairs
▁allowance
otechnology
▁presidents
▁medications
uder
racle
▁activate
▁amph
▁Discuss
▁Provide
▁Turkish
▁Regional
▁grounded
▁reactors
▁retention
▁wholesale
some
▁1993
iating
▁flags
▁Madrid
▁rainbow
▁collagen
▁deliberate
▁Nich
▁malf
▁obsc
▁Barry
iencies
▁Machine
▁bastards
▁cultured
▁derivative
▁phosphorus
▁tightening
ido
opa
▁ub
▁Gil
▁gem
▁Viol
▁blades
▁recons
▁Jonathan
▁Malaysia
▁Commander
▁nationalism
phil
▁Bear
▁hamm
▁bount
▁wrath
▁mening
▁snapped
▁gaps
irming
ificant
▁grandp
▁pathogen
▁appearances
▁Zhen
▁plac
▁gamble
▁guides
▁poorest
▁Analysts
▁inorganic
▁modulation
▁predecessor
▁conveniently
erto
▁Stri
▁enqu
▁sandy
inative
▁discontin
▁recipient
▁poult
▁rides
▁Action
▁inward
▁popped
▁deleted
arp
▁ner
seeing
▁gloom
▁transcend
▁Karl
▁cane
▁guinea
▁perenn
▁surviving
▁extinction
iza
lus
cott
▁exempt
▁utmost
▁lenders
▁Honestly
▁pall
oplasty
▁knives
▁Dynamic
▁buddies
▁freaked
▁retrieval
▁companions
▁definitions
axis
▁Casey
▁lifel
▁fertile
▁shaping
▁semantic
▁penetration
▁commissioner
▁pathogenesis
▁jets
olymer
roscopic
▁porcelain
▁stretching
Or
lpool
▁flaws
▁DM
▁bonding
▁arterial
nea
pton
▁liz
▁Innov
▁cosmet
▁radial
▁memorable
anic
user
▁Apart
▁Hunan
▁Bishop
▁earning
kok
▁chased
▁counse
▁angeles
▁apartments
ARD
▁Cher
▁Grey
▁lest
▁folded
▁antique
▁urgently
rite
▁pengu
▁obsess
▁refusal
▁Michigan
▁forecasts
onies
▁hike
▁cosmic
▁eleven
▁hygiene
▁DB
lest
odge
atisf
▁cottage
▁calligraphy
▁unexpectedly
▁wag
▁chunk
▁scarf
ceptable
▁similarity
your
▁Rat
alism
▁Poss
▁Wars
▁mend
▁atten
▁ether
▁farmland
▁warriors
▁inability
▁hail
▁noun
parable
▁liking
▁capillary
might
▁fools
▁soils
▁Ashley
▁Period
▁viewers
▁constraint
▁98
▁Cham
▁lasts
▁poorer
▁Influence
▁certified
▁professors
▁lantern
▁needles
▁projected
▁predictable
▁noises
▁pickup
▁sleepy
▁seminar
▁liu
▁brib
▁trophy
▁practition
▁generalized
ONG
ipment
▁sciss
ausible
obacter
▁Labour
▁souven
▁bearings
▁traveler
▁geographic
▁Thom
teenth
▁Ellen
▁Titan
▁rests
▁Admiral
▁Express
▁gracious
▁shortcut
▁overwhelmed
▁tac
▁Shaw
thirds
▁slender
▁repaired
▁Charlotte
▁dissolved
▁inclusion
▁bil
value
▁Activ
▁exempl
▁Bot
▁Wis
asket
▁Ethan
▁disability
▁undertaken
Her
▁Cu
▁Sab
atson
iotic
▁verse
▁relying
▁devotion
▁textbook
▁temperament
yg
sky
▁Ign
▁Yale
▁mars
▁rehearsal
aha
▁Bul
▁panda
▁aspirin
▁socially
▁persuaded
RY
rend
▁bew
▁Holmes
▁refugee
▁infringe
▁headaches
▁Mons
▁Nate
▁numb
▁Kenya
hetical
uminous
▁unjust
▁volley
▁cancers
▁refusing
▁Cases
▁violin
▁mansion
▁graceful
▁Christianity
energy
▁swords
▁Changes
▁Russell
▁journalism
▁Palestinians
azi
onda
▁Bou
▁Shan
▁Antar
▁scept
▁Guests
▁aquatic
▁nickname
▁spotlight
pri
airo
dest
track
▁cheque
▁demons
▁skiing
▁sandwiches
▁handwriting
▁Fer
ittees
▁screws
▁shorts
OUG
▁aur
▁veto
▁perceive
▁shrinking
ARS
▁Ian
Every
▁dime
▁ammun
▁worms
▁slag
listed
▁chrys
otropic
▁Harvey
▁gaming
▁rotary
▁recalled
▁musicians
aby
inee
unts
▁heap
▁Venus
▁Notice
▁boiled
▁qualifications
town
▁sept
▁Reform
▁Leaving
▁Shandong
▁slightest
▁interrogation
Pro
▁vs
▁Cape
▁Cook
▁landsl
▁handing
▁accusations
esc
eto
▁Kun
▁len
▁onion
▁porch
▁Counter
▁Orleans
▁pi
▁Kit
▁Pict
opular
▁Czech
▁migrant
▁Und
▁embarrassment
▁beta
zheimer
▁vendor
▁analges
▁implied
fashioned
▁advancing
▁violations
▁OP
hovah
▁reapp
▁Moving
▁regain
▁fashioned
▁urbanization
ika
uda
▁Joy
▁dna
▁Hans
▁Whit
▁peril
herical
▁goldman
▁curtains
intestinal
▁Caribbean
▁receptors
▁disappointing
AF
▁Abby
▁rick
▁troll
▁licence
▁Mes
enary
racted
▁unint
▁hosting
▁extracts
▁hierarch
▁invasive
▁maternal
▁recurrence
Let
▁il
prom
▁Dat
venty
erative
▁dermat
▁hiking
▁miners
▁schema
▁assignments
▁undo
▁Lucky
▁Numer
▁sixty
▁chambers
▁cosmetic
▁uniforms
▁predictions
▁si
▁Pil
▁trache
▁Detroit
▁simplest
▁bets
▁irony
▁regimes
itational
▁accidental
▁credentials
▁imf
holes
▁laure
ellation
▁prerequ
▁intervene
▁distraction
pur
▁68
▁Sue
oglob
▁unfor
▁temples
yes
▁au
▁Ning
▁tags
orting
▁ratios
▁thromb
eland
isition
▁luxurious
udi
▁EV
agent
▁fries
▁rockets
▁transferring
vine
▁Qin
▁Fail
ximate
▁messenger
abs
▁hull
▁overly
▁pending
▁weighed
▁detained
Here
▁Doppler
▁galaxies
IST
aba
icol
▁Kos
▁vou
arious
▁eclipse
▁marriages
▁authoritarian
▁Mayor
▁venge
▁Dennis
▁Fisher
▁earnest
▁subconscious
agu
acet
maid
than
▁Wan
start
▁hust
▁stunt
▁educate
▁eternity
▁paralysis
curs
▁filt
▁uneven
▁drunken
▁haunted
▁heavens
▁mirrors
▁rewarded
Do
▁Done
▁hover
mentioned
▁explores
▁civilized
▁Nixon
national
▁marathon
▁ammunition
alin
▁Bow
▁bluepr
▁melted
▁spectra
▁swollen
▁Carolina
ugh
▁Route
▁ranked
▁Atlanta
▁haircut
▁maximize
▁dedication
▁Considering
imum
ivism
▁imply
▁reunion
▁exchanged
▁separating
aract
▁THEY
▁pals
▁wary
▁Alaska
▁Palmer
▁hardness
▁salaries
▁scattering
Also
▁jac
▁Screw
▁disciples
▁fulfilled
▁TB
▁oy
hyth
▁Shang
▁sewing
▁hazardous
pie
▁Eu
alan
lined
▁Penns
▁pillar
pressure
▁Channel
▁Structure
▁adjustments
elia
into
▁goo
▁Java
▁Image
▁tasted
▁vinegar
▁currents
▁governed
▁mentality
▁understandable
erie
ieur
▁Yong
▁pact
▁aisle
▁smash
▁Harold
▁convict
▁suburbs
▁Ara
▁ther
iaries
atorial
▁credits
▁museums
▁soaring
▁disclose
▁coo
asian
▁Nazi
▁ting
Before
▁deple
▁heavier
▁balancing
▁Scientific
▁twe
▁Seoul
▁georg
▁glands
▁archives
▁unm
▁mint
▁dryer
▁razor
▁Gabriel
▁refresh
▁amplifier
▁prejudice
▁stimulating
imir
▁Dal
▁Breat
▁overc
ardless
▁arises
▁Contact
▁distances
▁Depression
▁psychologist
acc
▁Tel
erred
▁Legal
▁spawn
▁aerial
▁taller
ideo
iots
fusion
▁Bless
renched
▁alloys
▁sailor
▁rushing
▁questionnaire
cho
paper
points
▁annot
commerce
▁olympics
▁assassination
SI
oths
▁slut
▁villa
ropical
▁chicks
▁Purpose
▁instructor
▁simultaneous
▁2,
Just
ugues
▁Thor
▁Julia
▁syrup
▁heater
▁dismant
▁vietnam
sub
▁SOME
▁dope
Donald
▁Giving
iries
onents
▁skept
▁stool
▁framed
aryngeal
▁algebra
▁caffeine
▁lectures
▁enjoyment
▁moonlight
▁contributes
▁inefficient
▁broadcasting
▁manifestations
▁superb
▁Particip
▁firefight
▁imaginary
▁intestine
obia
▁Mit
onica
▁plea
umines
▁Asked
▁rated
▁Progress
▁navigate
▁Background
▁Throughout
▁entertaining
▁Vit
▁Value
▁crisp
▁Cancer
▁Interesting
corn
▁Pam
▁enroll
▁persec
▁spells
▁Jupiter
▁enduring
▁Mountains
▁australian
oleon
▁hangs
▁poetic
▁catches
atile
▁FROM
▁Jobs
▁Ring
▁bluff
▁Mobile
▁copied
▁gifted
▁appeals
▁vampires
▁exporters
▁contracted
▁emphasizes
▁specialists
▁poles
▁Brazilian
jah
acry
▁poultry
▁gag
▁bowel
▁faded
▁gloomy
▁sludge
▁skating
▁Benjamin
▁Wend
▁ethn
olysis
▁Heavy
country
▁madness
▁initiate
▁pesticide
▁communicating
dan
▁brom
▁powd
▁Zhong
▁vodka
▁porous
▁Nanjing
▁dumping
▁easiest
▁overlook
▁artillery
▁Spl
otted
▁Came
▁bern
cerity
▁ribbon
▁visions
Es
INE
▁fret
▁diaph
▁tighten
▁ventures
▁governmental
▁ka
nals
▁Ide
▁carr
rology
ml
▁Job
▁insured
▁metastasis
▁advertisements
ikh
▁GA
aton
iably
▁fuse
▁Guest
▁Roose
▁lotus
▁Caesar
▁Darwin
▁moscow
pectives
▁deserted
▁spectral
▁astronauts
ahar
isia
▁Cro
uguese
▁Imper
▁fuckin
▁redeem
▁seeker
▁payroll
▁elephants
▁chancellor
▁Wy
▁vase
▁equals
▁extravag
▁disastrous
acin
hero
▁dement
▁violated
▁routinely
▁polymerization
ths
▁Begin
▁Monica
▁puppet
▁Conserv
▁sensory
▁speeding
▁notification
hers
▁aph
balls
▁helm
▁asses
▁apprent
▁routing
▁formulas
▁fireplace
▁Pennsylvania
▁macroeconomic
▁sob
▁Joan
▁Plate
▁hered
discipl
▁emails
▁unveiled
oco
▁bricks
▁awfully
▁chewing
▁relevance
▁trafficking
▁administered
▁78
weed
faced
▁Monetary
▁readings
rospective
▁intrinsic
Sp
brew
▁Dog
▁kne
▁Skin
▁booze
▁pinch
▁vanity
▁compares
▁settling
▁statistic
atra
orer
uter
▁Mis
idable
iferous
▁lament
▁Automatic
kia
alph
▁pac
ogens
regon
▁wors
▁dances
▁uterus
▁inspiring
olo
▁2.5
▁mao
▁Aaron
▁disob
▁generals
▁gn
umper
▁teens
▁Located
▁Totally
▁aroused
▁extinct
▁Mongolia
▁connects
▁realised
▁absorbing
east
▁Buck
▁Serena
▁Marshall
▁criticize
▁displaced
▁intervals
▁fug
speak
▁arose
▁putin
▁Command
▁Hillary
▁probable
▁treasures
▁discharged
▁remembering
▁accelerating
cross
▁Mason
▁clash
▁handc
▁locom
icillin
▁Xinjiang
▁feminine
▁broadband
▁stiffness
governmental
▁ark
▁Hank
▁ninth
▁undes
▁litter
▁livelihood
▁tile
▁abnorm
▁storing
▁violate
▁procurement
uber
▁bever
▁Sister
▁Improve
▁attracts
▁collections
▁10-
▁Tam
racies
▁Cheers
▁cabbage
▁energies
▁monitors
abel
▁degr
intend
▁caves
▁solic
▁casing
▁cherish
▁Lux
mares
▁choir
▁prefect
▁villain
▁virtues
▁disclosed
▁resentment
▁ED
ammad
▁whites
▁nipp
▁tidy
▁brink
▁shack
▁savage
▁Marxism
▁traction
▁fier
▁gour
▁deval
▁goats
▁carbohyd
▁Architect
▁formulated
▁nomination
▁suppression
geon
▁Bren
imilar
ussian
▁disreg
▁tuition
▁dispatch
▁inhibitor
▁refreshing
▁preferences
▁Complimentary
▁MT
▁Pad
▁peel
▁ranch
▁cursed
▁lenses
▁recorder
▁utilized
▁courtroom
▁electroph
▁Individual
▁explanations
▁1989
abouts
ladesh
▁Freed
flation
▁ranges
osterone
▁offended
▁resembles
▁progression
OB
adic
▁Enc
▁ect
▁heir
▁dared
▁sings
▁Newton
▁descent
▁briefing
▁disputed
▁crystalline
▁63
ashi
▁guerr
▁Justin
▁Sitting
▁wishing
▁jealousy
▁resembling
QL
▁Ohh
▁font
inable
▁Chand
▁adorn
service
▁unanim
▁insights
▁Finding
▁asphalt
▁invoice
▁genuinely
▁saturated
▁forgetting
▁marketplace
▁recruitment
rotein
▁horns
▁tours
▁linger
▁losers
▁quartz
▁pyramid
▁accountable
▁quarantine
▁ome
utory
▁fict
▁inad
▁Simply
▁melody
▁confisc
▁consisted
▁examinations
owa
atum
▁Hem
▁charter
▁ireland
▁Portugal
▁delivers
▁outdoors
▁reliance
▁shortages
▁overweight
▁interpreted
▁jim
payer
▁biod
xtures
▁aneur
▁flown
▁revive
▁genetics
▁proximity
▁adjustable
▁unilateral
▁demographic
opp
amus
aints
aternity
▁leaning
grown
▁Herm
▁alkali
▁overre
▁toothp
▁Various
▁Cind
iterate
▁autism
▁Meaning
▁kinetic
▁plateau
▁scoring
▁manually
▁WOULD
▁spies
idelity
▁typing
▁assumes
▁seizure
▁striker
▁diplomats
▁delightful
▁Netherlands
HP
asties
filled
▁Shell
▁lacked
▁greeting
▁editorial
▁elevation
▁align
▁scars
ladimir
▁pseudo
itations
▁silently
▁resection
▁disrespect
▁Gee
ortex
▁dizzy
▁silic
▁capita
▁keeper
▁harassment
▁biochemical
▁Moz
▁Grant
▁spilled
▁corrected
▁prevalence
▁110
▁clut
▁confuse
▁fragrant
▁decorative
ICE
▁Elena
▁lions
▁induct
▁submer
▁forestry
▁switches
▁digestion
▁sacrifices
APD
▁Cars
▁Wear
▁temp
▁Focus
▁incub
▁shamp
▁Garcia
▁groundwater
▁transported
inum
otine
▁casc
▁myel
▁pony
▁insign
▁Talking
▁interim
▁catheter
▁dreadful
▁MAN
▁ont
▁Week
plasia
▁misses
▁qualify
▁adorable
▁conceived
▁reconsider
lix
▁Aer
▁snee
riched
▁Stick
▁exile
▁stereo
▁miniature
▁unacceptable
▁Kal
▁RMB
▁asp
▁Carm
▁NEED
▁crad
▁pore
▁recl
▁thankful
▁imbalance
▁formidable
▁solidarity
▁comfortably
idi
▁RF
ppings
▁shove
▁Walker
▁transforming
▁righteousness
▁Dry
▁Ding
▁elong
▁banner
▁secrecy
▁licensed
▁celebrities
sur
oderm
itates
▁symph
▁lesbian
▁weights
▁embraced
▁Pakistani
▁incapable
▁recognise
▁Commercial
mary
uria
shirt
▁marx
▁wield
▁Altern
▁clearer
mails
omics
▁Jedi
▁Path
▁Prior
▁intox
▁Austria
▁Denmark
▁strokes
▁assassin
▁plaintiff
▁privileges
▁acquaintance
▁neighbourhood
nap
▁HIS
▁blah
▁venue
▁pumpkin
▁microstructure
ogly
▁omn
first
▁tones
▁brakes
▁perish
▁urgency
▁religions
▁shattered
▁sentimental
▁ding
▁weeds
▁anomal
▁Finance
▁boosting
▁harmonic
squ
ulant
wheel
guided
▁Petro
pensive
▁pistol
aturally
▁Swedish
▁democrat
▁notorious
▁incorporate
▁nevertheless
bes
▁chal
▁ford
▁jing
▁hairy
▁moron
▁anomaly
▁spoiled
▁overview
▁discloses
▁lucrative
▁occupational
▁NG
lder
▁insom
▁Athens
▁hosted
▁airports
▁vomiting
▁FE
ington
▁Kansas
▁prayed
▁deposited
▁bureaucracy
▁4-
▁Cart
▁Perm
▁bage
▁Media
▁Staff
▁Senior
▁frightening
-10
ggie
▁morb
▁alkal
▁excre
▁Wherever
▁merchants
▁pc
▁Benn
namese
▁hitch
▁startup
▁theorem
▁openness
umen
anate
content
▁barbar
▁Teacher
▁oversee
▁discreet
▁intuition
essa
third
▁Fried
▁chalk
▁monks
▁scans
▁wildly
▁advisers
▁stripped
▁symmetry
▁Bit
▁harbour
▁taliban
▁scarcely
▁counseling
▁romney
▁Abraham
▁bowling
▁mailbox
▁outlets
▁sweating
▁stabilize
▁undergraduate
hmm
▁yu
ague
▁Ahh
▁Pub
▁nets
▁Marcus
▁Advanced
▁morphine
▁expresses
▁recreation
▁partnerships
bey
▁fri
▁piles
▁Instit
▁shotgun
▁rebellion
▁publications
hr
hin
atri
araoh
falls
stroke
▁kidneys
▁journals
▁trusting
▁weighing
▁healthier
▁attendance
▁orthogonal
apl
▁HS
▁Dur
ensor
▁scanner
▁rigorous
▁injustice
▁accumulate
▁Fill
ophyll
▁Booth
▁karma
▁Nuclear
▁Internal
▁dinosaurs
▁francisco
▁demonstrations
▁pops
▁boasts
▁conspic
▁femoral
▁oatmeal
ietnamese
▁financially
▁74
▁sb
lishes
▁freel
▁rheum
▁mechanic
▁benefited
▁reservations
▁vulnerability
ello
uffed
▁Feed
▁Share
▁Primary
▁sunrise
▁polluted
▁combinations
▁appropriately
oz
ureth
▁remn
▁forge
▁nanny
▁ozone
largest
▁asylum
▁sucking
▁successive
▁Own
▁claw
▁tuna
▁erase
▁jiang
compass
▁tailor
▁ovarian
▁anticipate
▁psy
ottom
▁Arts
▁Noah
▁Safe
▁situ
bourne
▁acres
▁Nigeria
▁nitrate
▁Physical
▁advisory
▁firewall
▁recommends
▁86
▁Cad
acting
▁cigar
▁daring
▁denying
▁nursery
▁searches
▁cosmetics
▁enjoyable
▁astonishing
▁enlightenment
rily
▁Lis
▁Mas
▁zip
ysics
amorph
aution
▁Limited
▁hottest
▁outgoing
▁preoccup
▁imprisonment
▁investigator
GA
imming
▁albeit
▁Library
▁exceeds
▁remotely
▁helicopters
▁perspectives
mus
▁Mall
▁calf
ancies
▁ransom
▁Affairs
▁Putting
▁allocated
▁Developing
▁Discussion
▁indirectly
▁kindergarten
axial
▁angi
▁fats
▁frig
▁esteem
▁Install
▁photosy
▁vibrant
▁excluded
▁expounds
▁orchestra
▁nd
mighty
▁stray
▁grants
▁suburb
▁Playing
▁Operation
▁artifacts
▁microscopy
▁submission
▁endothelial
quin
▁Ale
▁bliss
▁verge
▁plains
▁sleeps
▁holders
▁deceased
▁shepherd
two
▁flop
growth
lasses
▁attent
▁humour
▁outsour
▁philipp
▁Brussels
odic
▁peri
ourage
▁franc
▁plumb
▁ellipt
▁Baghdad
▁airborne
▁outlined
▁Countries
▁metro
▁rogue
▁Writing
▁lithium
ylan
techn
▁Thou
▁kite
▁nato
otrans
▁perennial
▁Der
▁mont
▁Solid
▁arrows
▁infert
▁centered
▁appliance
▁indifferent
APP
▁rook
▁forged
▁paradigm
▁instructed
▁organisations
▁ara
dated
▁Blake
▁elders
▁healed
▁outright
▁heartbeat
▁Curt
▁WILL
ilated
▁reuse
▁Chance
▁Greeks
▁polymorph
▁irresponsible
gger
▁fost
iciency
▁assemble
▁blasting
▁defended
conditioning
▁59
arks
▁900
▁cellar
▁probes
▁crushing
▁Nonetheless
BR
▁Row
▁dome
▁flir
▁Pharm
▁supers
▁prefers
rigerator
▁Illinois
▁dividend
▁valuation
▁circulating
▁acquisitions
▁Investigation
▁cafeter
▁swiftly
▁cataract
▁adventures
▁turbulence
▁hydrocarbon
▁Additionally
cedes
▁Fant
▁Inner
▁caval
▁fella
▁inhal
▁idiots
▁debates
▁recurrent
▁implication
▁Pier
lights
▁camel
▁Philip
▁fishes
▁barbecue
▁compiled
▁DS
▁gib
avilion
daughter
▁Anthony
▁rendering
▁utilizing
▁Ln
▁heed
atches
▁Claud
▁edema
▁metic
▁improv
▁transpl
▁scissors
▁splitting
OG
▁AA
-200
▁Syrian
▁detain
▁accepts
▁ignition
▁additives
▁completing
▁EP
ucing
▁Gate
▁Trib
▁ureth
▁repeating
▁deterioration
umsy
▁outf
▁traps
▁glowing
▁costumes
▁realities
▁committees
▁worthwhile
UM
Mean
▁Cli
itoes
▁humid
quarter
▁unavoid
▁hostility
▁Comparison
▁discourage
▁disruption
▁comprehension
ei
Thus
onial
ricate
▁Joint
▁handler
▁bracelet
HS
▁Fal
▁fury
▁forbid
▁relied
▁slides
▁donations
▁secretion
▁nightmares
Its
▁Yahoo
▁Mickey
▁abused
▁cutter
▁donate
▁softly
▁renewal
▁unwanted
math
Second
erting
▁Allen
▁Thirty
▁publishers
ibular
▁GOING
▁inver
▁squat
▁monopol
▁restrain
▁cartilage
▁sacrificed
▁fetus
▁syntax
▁Strange
▁reacted
▁postpone
▁precaution
▁implantation
▁complementary
tier
▁ase
▁Corp
▁dots
▁spicy
▁molding
▁thanked
▁disappearance
▁77
▁Ti
▁sug
▁calam
▁shocks
▁Example
▁menstru
▁squeezed
▁73
HING
▁Cow
Today
umption
▁jewels
▁freezer
▁exhibits
▁hemisphere
▁territories
▁82
▁ls
comb
oise
ernand
esteem
▁empower
▁monarch
▁superst
onite
▁womb
bility
▁lodge
▁parach
▁unaware
▁commanded
▁supervise
▁brightness
▁catastrophic
iquity
▁coven
▁lords
▁catalogue
▁Ferr
▁apex
▁Donna
▁abort
▁downs
▁repent
▁saddle
▁rightly
▁activist
▁alleviate
▁pretended
▁stressful
Os
umps
irmed
▁assim
▁Stupid
▁auditor
▁Broadway
▁accusing
▁dinosaur
▁Roosevelt
▁reviewing
▁Evaluation
▁exaggerated
▁staged
▁cousins
▁forgiven
▁Southeast
▁respectable
▁reconciliation
▁Roc
▁Wash
▁ropes
▁famine
▁biomass
▁farewell
▁accessory
del
▁ou
▁Hud
▁fag
▁cupc
▁rejo
▁cardi
▁cloak
nthetic
▁bushes
▁tariffs
▁alkaline
▁pancakes
▁Equipment
▁accomplishment
outed
▁Neil
▁lick
▁bites
▁endow
▁allergy
▁handbag
▁Continue
▁discomfort
▁distributing
ivan
▁gram
▁mism
▁ceramics
▁compelled
▁unpopular
▁ps
▁Julie
▁mates
▁Bernard
▁eyebrows
▁ruthless
▁Authority
▁microphone
▁conjunction
▁rationality
▁lem
▁mike
icularly
▁Village
▁chatter
▁foresee
▁referee
▁compressor
▁synchronization
flower
▁splash
mir
▁Qi
four
▁Mort
▁Block
▁Finish
▁cadres
▁photoc
▁granite
▁evacuation
▁dissolution
CR
mad
▁labs
▁todd
▁coats
▁syria
▁pharmacy
▁stirring
▁footsteps
vae
▁88
▁stag
▁strap
▁morgan
▁peptide
▁sofabed
▁polished
▁intuitive
▁penetrate
▁diversified
▁localization
nuts
▁189
cking
dling
▁BACK
▁Bron
▁Dian
▁turf
▁streak
ographed
▁Pressure
▁markedly
▁philanth
good
itts
eered
▁Amen
▁bribe
▁riches
▁Keeping
▁aneurys
▁bonuses
▁committing
▁Lic
genic
▁Deng
agonal
anners
▁Austin
▁tactic
ifference
▁staining
▁takeover
▁uncovered
▁aspirations
▁cis
▁dart
verend
▁Iceland
▁Whereas
▁headline
▁compositions
▁Maur
inflamm
▁hereby
▁socket
▁florida
▁whiskey
ynchronous
▁Testing
▁ischemic
▁restless
▁generosity
▁pancreatic
▁pollutants
▁positioned
▁psychiatric
▁Massachusetts
▁76
▁Side
▁baff
▁ageing
▁wardrobe
▁whirlpool
▁configured
▁longitudinal
sticks
uggish
▁cocon
▁mourn
▁spice
▁Anderson
▁cellulose
▁communism
▁fluorescent
▁OS
athe
feld
ainan
asper
▁caus
▁epoxy
▁McCain
▁piston
▁registry
▁screwing
▁integrating
▁lightweight
▁om
copes
▁Prize
▁eject
▁fooled
▁Mission
▁tug
rians
▁subm
▁monot
▁bumped
▁franchise
▁intermitt
▁pronounce
▁interventions
anka
resa
Further
general
generation
▁reforming
▁proceeding
▁Kaz
▁dong
▁evenly
▁Stanford
etting
▁Glass
▁linen
raising
▁flatten
▁scripts
▁ascertain
▁delegates
▁pesticides
tar
▁ft
isen
▁Cash
▁seaw
ubarak
▁fills
▁Apollo
▁juices
▁redist
▁sparse
▁Reuters
▁biscuits
▁evolving
▁probation
▁travelled
▁reservoirs
▁SEE
▁Zeus
ranial
▁Quant
▁circl
▁deepen
▁geopol
▁mentor
▁Additional
▁preserving
▁citizenship
▁persistence
▁Agricultural
▁congratulate
▁historically
▁differentiate
▁gh
▁woven
defense
▁grocer
▁workout
▁concealed
▁policemen
▁Sel
aryng
▁Appro
▁Animal
▁Jeremy
▁princip
▁Emergency
▁concurrent
▁DD
▁0.01
▁henry
Meanwhile
▁sanitation
▁fluctuation
▁grandparents
Cs
▁ferv
▁beers
▁frown
▁poets
▁tigers
▁Jessica
▁tearing
▁Insurance
▁endurance
▁rall
angled
inting
▁chuck
▁niece
▁applaud
ASE
▁Od
amps
▁Cho
issue
vents
▁turnover
▁militants
club
▁Eur
ercise
patient
▁sounding
▁hollywood
▁mediation
ubei
vada
▁indec
▁beasts
▁clutch
▁learns
▁foremost
▁lipstick
fur
pox
lied
birth
nesota
▁belts
▁Collins
▁labeled
▁pioneer
▁revival
▁smelled
▁surfing
▁Scottish
▁honorable
▁twentieth
▁terrifying
▁ache
▁perp
▁burger
▁commend
▁commence
▁cellphone
▁duplicate
▁transverse
▁subscription
opes
▁icy
▁eyed
▁robe
▁ducks
▁recoll
▁Walking
▁plunged
▁Caroline
▁descended
▁Agriculture
km
▁67
▁rebu
▁Pardon
▁Governor
jun
keley
▁meds
▁pars
▁Reagan
▁briefcase
ALK
rious
▁Draw
ocrine
▁toxin
ococcus
▁inputs
▁backpack
▁pictured
▁amusement
▁definitive
▁waterproof
▁discovering
▁resh
irteen
rising
▁waving
▁coeffic
▁confine
▁diffuse
path
▁bake
▁fines
▁Venice
▁editors
▁remorse
umbai
▁cram
▁redd
▁Holland
▁sailors
▁addicted
▁surveyed
▁deepening
▁93
cyst
▁murm
▁00000
election
▁blossom
▁variance
▁writings
DER
ihad
usea
▁Sino
▁cube
▁plead
▁weary
aporation
▁Planning
▁diaphrag
▁indonesia
▁humiliation
▁psychiatrist
Ad
fa
▁20-
▁Cha
▁ale
▁lobe
▁Forum
▁brist
▁choke
▁shalt
reading
▁tranquil
▁plausible
▁installing
lay
wal
▁Clay
▁Accept
▁morgue
▁borrowers
▁discoveries
tin
▁penn
▁halls
▁packs
▁Waiting
▁infusion
▁cafeteria
▁wrestling
sided
▁aroma
▁Baltimore
▁reinforcement
UC
aac
iere
▁awe
▁vivo
consin
▁tapped
▁slipping
▁Copenhagen
▁cling
▁Fujian
▁uneasy
▁analogy
▁polyester
▁recruited
▁smuggling
▁conformity
▁Acid
▁jose
▁tian
▁Queens
▁chorus
▁darker
▁iodine
▁medals
▁towels
ongevity
▁Christopher
jack
▁CAR
anked
ixing
▁Gang
▁Acute
▁Catch
▁mummy
▁scorn
▁anemia
▁derive
▁postal
▁Climate
▁sincerity
▁descriptions
▁lax
▁Whoo
▁conferences
▁resolutions
omat
▁calor
▁Warren
▁bitches
▁blaming
▁tempting
▁detectives
▁Nit
▁Nut
▁trader
▁prevail
amination
▁Lawrence
▁Normally
▁crashing
▁overlooked
▁Preparation
▁amn
thood
levard
▁gangs
ittance
▁Determ
▁Geneva
▁header
▁annoyed
▁dementia
▁morphological
▁schizophrenia
yrics
▁Rand
▁Moore
▁quota
▁Beauty
▁multif
▁shampoo
▁receipts
▁predators
▁quotation
▁imbalances
▁distillation
ANG
coal
glass
ocamp
▁Zheng
▁inlet
electric
▁Teachers
▁transist
▁Barcelona
▁Regardless
roc
▁Hob
▁foil
▁furnish
▁stagger
▁Customer
▁hardship
▁thailand
▁streaming
tw
becca
rings
▁Iook
▁lays
▁breads
▁endors
▁sponge
▁carotid
▁punched
▁trainer
ordination
▁spherical
▁translator
▁synchronous
▁standardized
▁vows
▁wakes
amiliar
developed
▁subscrib
▁resolving
▁withdrawn
▁polarization
imen
▁Bai
anity
▁drip
▁biting
▁acrylic
▁regener
▁tectonic
ouri
aphyl
offic
orthy
smith
▁bats
▁scaff
▁sniper
▁segmentation
▁sustainability
MI
achi
azed
wick
▁laps
▁Problems
▁ove
▁Vent
kshire
ospace
▁eloqu
▁dreamt
▁pumped
▁cheerle
▁marshal
▁vanilla
▁chatting
▁constrained
who
ierra
▁dens
▁aloud
▁mascul
▁sailed
▁behaved
▁cricket
▁gunshot
▁Pentagon
▁fortunes
▁microbial
▁coefficients
▁Walt
▁mull
▁stif
▁Monte
▁yahoo
▁amusing
▁depressing
▁engineered
▁Technically
▁rept
assing
oreans
▁Fifth
autions
ensible
▁indict
▁devastated
▁intravenous
▁NOW
▁mop
▁bash
queous
▁kicks
▁underway
▁bacterium
▁architects
▁prevailing
▁Characteristics
oxid
▁Bah
vedev
▁dors
intage
▁Rober
▁waits
imeters
▁uphold
▁gateway
▁assessing
▁Cun
▁Zhao
▁loosen
▁fearful
▁gigantic
▁beverages
▁programmed
▁stationary
base
ipid
mium
itant
▁Pure
▁Troy
▁cruc
▁Apply
▁remod
ropathy
▁invaded
▁sellers
▁disposable
▁Mississippi
▁inexpensive
▁competitions
▁Communication
iji
lux
▁Lion
▁veil
igroup
ilight
▁waved
▁divert
▁strips
▁Arabica
▁Corporate
yon
▁Yin
▁ace
▁gyn
ilate
izens
▁blues
▁hunch
▁closes
▁groove
▁mouths
atisfied
▁attacker
▁diversion
▁bargaining
fs
uto
ilst
igated
▁corro
▁tipped
▁Frankie
▁Rebecca
▁Hangzhou
▁impaired
▁Objection
▁smartphone
Per
▁cue
uable
▁EVER
▁Ruth
▁hints
▁scott
▁Ground
▁gospel
▁palate
▁guessed
▁aftermath
ilia
▁TCM
▁Risk
▁lace
▁Flore
piration
▁richard
▁stirred
▁ammonium
▁sidewalk
▁concludes
▁mutations
tube
osures
ushima
▁Maggie
▁bounds
▁fringe
▁nausea
▁staple
▁gravitational
▁Vi
shaw
dings
spoken
▁Ronald
▁cameron
▁canadian
▁evidently
▁freshwater
▁intercourse
olt
▁hog
▁tib
trade
▁Salt
▁hege
▁silica
▁presumably
▁irradiation
ITY
acr
▁McK
apanese
aternal
▁invari
▁sucker
▁sanctuary
osin
▁Cot
azine
esian
▁wart
▁vowed
▁Martha
▁boston
▁shaken
▁Jiangsu
▁chopper
▁indulge
▁leaking
▁McDonald
▁computational
orig
imbab
ploys
▁null
▁tart
ighted
▁Cloud
▁flute
▁Contain
▁doorway
▁runners
▁forthcoming
dale
▁Tow
romat
▁Means
▁eryth
▁flick
▁ivory
▁unfold
▁simplify
▁concessions
hran
ebted
▁charism
▁survivor
▁unhealthy
▁motherland
▁antioxidant
ioma
earth
▁rods
▁rome
▁weep
▁Phill
▁niche
▁Treaty
▁pelvic
▁variant
▁stumbled
▁bookstore
▁malicious
lle
oden
rock
▁aII
▁tat
▁Vienna
▁commentary
▁establishes
45
kong
▁pupil
▁siege
balanced
▁Sarkozy
▁cunning
▁magician
▁nonetheless
▁underestimate
▁96
▁Soil
▁Spart
▁yacht
▁Smoking
▁Workers
▁Combined
▁physiology
▁GON
▁Ric
▁Join
valued
▁Satan
▁arctic
▁slopes
ocracies
▁frustrating
▁supplements
▁inoc
▁Surface
▁guarded
ventional
▁crawling
▁enlarged
▁exceeded
21
fill
▁acne
▁epiderm
▁declines
▁restoring
▁Nam
▁Ying
umbent
▁Basin
▁deluxe
▁Miranda
▁apologies
▁subsystem
▁BY
cases
edong
dollar
▁jumps
imbabwe
Moreover
▁sterile
▁dispersed
AME
half
opor
ograms
▁Delta
▁Produ
▁interl
▁vacant
▁longing
▁stealth
▁successes
▁fabrication
dr
xin
▁Anal
▁Born
▁Rece
▁Sche
▁TIME
▁benz
▁ballot
american
kerchief
▁displaying
▁nationalist
emb
yll
▁Juan
Though
cinoma
▁unman
Instead
▁Castle
▁Toyota
▁lifelong
▁immigrant
▁illustration
▁proportional
▁SR
▁bak
▁lumber
▁Barbara
▁stained
▁weakening
ahl
bows
▁axe
tight
▁Youth
▁bedrooms
▁continuity
ichi
▁beck
▁leaked
▁Belgium
▁mourning
▁shutting
▁internally
▁misleading
▁vigorously
▁mountainous
▁Philadelphia
▁Relationship
▁Fan
▁Kang
ronics
▁shrub
colored
▁finals
▁copying
▁hazards
▁override
▁misfortune
▁prerequisite
▁contradictions
lem
▁Hod
▁Hub
▁tut
▁rapp
▁emuls
▁lifes
rehensive
▁obstruct
▁83
▁frontal
▁resisting
▁elasticity
▁spectroscopy
▁PT
▁Mut
▁Wasn
▁basal
▁embar
▁fulfil
▁plunge
▁sheath
chanical
▁creator
▁greatness
NS
▁BO
bern
▁Sadd
▁Hindu
▁Solar
▁retal
▁swirl
ceptive
▁Present
▁manpower
▁Description
▁”"
▁LOOK
▁blogs
▁carol
▁hypnot
▁onions
▁elegance
▁Esc
▁Brun
▁Chap
▁Brain
▁Adjust
▁metric
analysis
▁dividing
▁reproduce
cier
▁ger
▁sth
▁Leaf
▁rehab
▁sorting
▁thinner
▁gestures
▁cylindrical
LS
▁AW
▁dean
estial
▁mosquitoes
▁settlements
glom
depth
illas
▁caller
▁impover
▁melanch
▁dissolve
▁attendant
▁catalysts
▁licensing
▁scrambled
▁dyes
cation
▁chopped
▁donated
▁practise
▁unchanged
▁intentionally
cate
rina
risk
etics
▁Worse
lusconi
▁larvae
▁laughs
▁violet
▁Customs
▁inquire
▁mitochond
mid
iton
▁excl
▁scra
▁broch
▁clumsy
▁Vincent
▁bailout
▁shorten
hetically
▁membranes
▁Federation
▁moss
▁dusty
▁saudi
▁Series
▁dissent
▁preview
▁confirms
▁configure
▁stabilization
lah
cked
help
▁ros
hydro
rooms
▁Dial
sharing
▁Female
▁tensile
▁auditing
▁capsules
▁episodes
▁telegram
▁marijuana
Conclusions
inos
▁gur
▁cubic
▁median
▁Feeling
▁berries
▁pudding
▁tapping
▁historian
▁TM
▁PCR
▁WERE
▁arche
▁crest
▁hilar
herence
▁Mister
▁dispose
▁geology
▁puncture
aux
sten
▁Hat
▁vap
▁popcorn
▁ventric
▁suburban
▁illnesses
▁centralized
ele
▁OFF
▁Tro
▁gob
apped
▁gears
▁Olivia
▁filtration
▁approximate
▁disciplines
▁grandchildren
crack
image
▁bleak
rystall
▁basics
▁depress
▁forging
▁regrets
▁Napoleon
▁dividends
sty
illar
nered
▁Drugs
▁Index
▁afore
▁brisk
▁vagina
▁counties
▁mushrooms
▁ard
ivation
▁insurg
▁lyrics
▁pigeon
▁Disease
▁suction
▁jerusalem
▁similarities
▁RO
▁bred
▁emit
markets
▁Comrade
▁Yangtze
▁textbooks
abad
arth
inished
▁fading
▁Luckily
intensive
▁brightly
▁deprived
▁HC
▁Oct
escent
▁GONNA
▁intel
emption
▁deduced
qualified
▁retailer
▁downstream
OUR
lift
olia
▁Gran
▁Hair
▁Peru
▁distort
▁predicts
▁prestige
▁reversal
▁wretched
aires
alion
▁Wire
▁agony
▁diets
▁rider
▁Romans
▁nozzle
▁Marines
▁liquids
▁Venezuela
▁signaling
▁prosecutors
▁Professional
lov
agic
fuel
▁latt
▁abras
▁condom
▁posters
▁retinal
▁Katherine
▁supplying
▁spokeswoman
▁dictatorship
▁NP
▁ole
uments
▁paints
▁lengths
▁cathedral
▁organised
▁prostitute
GB
itosan
▁plent
▁Spencer
▁crosses
▁chlorine
▁monaster
▁tangible
▁aggressively
▁appointments
lys
ysc
coma
▁osm
▁xen
▁Mail
▁Sony
oplastic
▁Electro
▁payable
▁showers
▁Monsieur
▁bottlene
▁sanction
▁blindness
▁repository
▁revelation
▁strawberry
oxic
▁Ark
▁CAD
▁arid
▁mills
▁rever
▁timer
▁Includ
▁pointer
▁decorate
▁distrust
▁seedling
▁accompanying
▁handkerchief
aI
▁FL
feng
▁plasm
▁spraw
sterdam
▁demise
▁jammed
▁mantle
▁swings
▁Marxist
▁orchest
▁suspend
▁enhances
▁killings
▁distorted
▁redundant
▁adequately
▁97
▁Syl
ouched
▁Rules
▁Eating
▁chimney
▁evergreen
▁contractors
▁transmitter
chip
leys
▁Mig
entry
ulfur
▁Band
▁memo
▁lofty
▁Ethiop
▁dyeing
▁naming
▁posting
▁Brothers
▁parental
▁negotiated
▁cooled
▁Traffic
▁deceive
▁inaccur
▁tighter
▁spraying
▁exploited
▁backgrounds
▁Nina
▁hash
▁drone
▁morale
▁relativity
▁inconsistent
Int
▁Lia
inges
▁Clar
▁doom
▁glor
▁zeal
▁obese
naments
▁Visual
▁carving
▁penalties
▁congestion
▁epithelial
Two
human
▁oval
▁sued
▁bunny
▁hides
▁Comput
▁latent
▁prodig
▁mustard
▁coloured
▁starters
▁disappears
▁rectangular
▁AI
andra
anyon
▁Evan
otoxin
should
ulture
▁pasta
▁ubiqu
▁tracing
▁Colombia
▁vengeance
idget
▁Jian
▁Prel
▁grill
▁steve
▁emerges
▁flavour
▁sparked
▁privileged
▁replication
▁Consequently
▁Ot
inho
soon
shops
▁Male
▁Darling
▁acetate
▁Criminal
▁eventual
▁inclusive
▁downloaded
END
▁SAY
▁wob
prime
urger
▁hips
▁2,000
▁mirac
quarium
▁Future
▁Online
▁covert
▁crocod
▁Economy
▁queries
▁recalls
▁Movement
▁departed
▁sluggish
▁workflow
▁intrusion
▁quarterly
▁transcript
▁disagreement
bet
oder
▁Zoe
rance
▁1979
pering
▁dolls
▁nodded
▁stains
▁plaster
▁plating
▁animated
▁recycled
▁slippery
▁recruiting
New
▁joe
▁Goth
▁curv
▁roar
▁Metal
▁servo
▁greens
▁priced
▁Grandpa
▁Twitter
▁seventy
▁diplomat
▁likewise
affe
▁Fra
adata
antom
▁nicer
▁swiss
▁steril
▁bathing
▁filming
▁patches
▁escaping
confidence
▁lawmakers
▁precautions
Over
omal
▁overs
▁plaque
▁aqueous
▁hostess
▁dictator
▁overhaul
▁Confucius
▁ascension
▁contagious
abby
▁Ger
▁seep
▁beggar
▁classics
▁learners
▁swinging
▁clustering
▁advantageous
horn
oren
indle
▁phyt
stones
▁Users
▁Wrong
▁leaks
gencies
▁ration
▁tendon
▁confuci
▁domains
▁physicians
▁Accordingly
▁kh
imer
price
▁illumin
▁portions
▁treacher
▁encompass
▁volleyball
▁RT
▁dex
▁dop
urous
▁Jill
▁spun
▁Magic
▁Lakers
▁drastic
▁cupboard
▁polymers
▁hippocamp
▁MO
▁LED
▁Meg
oeing
▁malt
anyahu
▁genre
▁rotate
▁islamic
▁flourish
▁quitting
▁unsuccess
▁intriguing
▁malfunction
▁proprietary
tax
▁soak
evelop
▁Crist
▁spying
▁urging
▁Overall
▁thriving
▁homosexual
▁detr
intang
▁louis
▁Active
▁Saturn
▁impuls
▁leaned
▁poised
▁advisor
▁indoors
▁provoke
▁destabil
▁populated
▁justification
▁69
▁HAD
▁quadr
▁racist
▁childish
▁ineffective
eger
ealing
▁Cuban
etitive
▁carrot
▁orient
▁rested
▁benevol
▁lengthy
▁Exercise
▁eighteen
▁utilities
▁identities
▁masterpiece
▁GS
▁COULD
inology
▁Harris
▁Watson
▁uterine
▁undergone
▁congressman
▁girlfriends
arus
▁Golf
▁sands
▁Shanxi
▁modular
▁orbital
▁Jennifer
▁validate
▁afterward
▁pediatric
▁charitable
exp
▁PRE
▁GOOD
▁dummy
arrison
▁Ensure
▁infirm
▁baseline
▁garments
▁interfer
▁literacy
▁pleasing
▁deception
▁composites
▁optimizing
▁unification
OUND
arel
▁Link
ankton
▁agile
▁condu
▁flavors
▁standpoint
▁periodically
▁constellation
etta
ohist
▁doin
▁swan
▁physi
▁timet
elastic
▁Sophie
▁terrace
▁pensions
▁taxpayer
▁disinfect
trad
▁130
▁Slo
▁Lois
▁volt
invest
▁Holly
▁dutch
▁shrew
keepers
▁hooker
▁artific
▁consolidate
▁intellectuals
▁interpersonal
▁Crow
▁pins
▁drums
▁Copper
▁surfact
▁uncover
▁brighter
▁fibrosis
▁blessings
▁mythology
▁correspondent
CA
▁186
Where
▁Quit
anding
▁Hydro
▁broom
▁Guangxi
▁charles
▁Portland
▁overthrow
▁precedent
▁fascinated
si
▁Wel
▁plots
▁favored
▁disposed
▁Fac
ocide
▁Video
▁outsk
▁Deputy
▁atlantic
▁visibility
bee
idy
▁eyew
ovable
▁creek
▁shale
▁louder
▁bedding
▁stripes
cm
ummy
▁ron
▁yawn
enance
plates
▁Below
▁ambush
▁toxins
▁burdens
▁cynical
▁endomet
▁overlap
▁metamorph
▁stretches
▁recognised
▁RP
▁von
▁dont
▁exits
▁Nelson
▁pushes
▁Critics
▁Failure
▁employing
▁grassland
▁inconvenience
oro
know
cheng
▁kang
▁tits
oresis
▁civic
▁flirt
▁salon
▁shrubs
▁turbulent
▁pronunciation
ACE
Among
ocaly
otent
sheet
▁lava
▁aberr
▁reimb
▁coping
▁quotes
▁racket
▁slices
▁whipped
▁ballistic
▁conservatives
comm
▁140
▁2020
▁Bird
▁Vers
▁abys
▁hass
▁Fixed
▁diner
ablished
▁indices
▁longevity
▁Personally
▁saturation
▁stipulated
sein
▁retic
idences
levision
▁reckons
▁shoppers
▁embryonic
▁spectacle
▁electrodes
▁possessions
▁LA
uper
avior
▁prow
closed
▁Marty
▁tramp
▁Freedom
▁abducted
▁recipients
Art
obi
umped
▁fang
itoneal
▁relics
▁starve
▁dolphins
▁estrogen
▁flashing
▁diffraction
forth
rights
▁crews
▁wiring
▁abruptly
▁incompat
▁environmentally
▁Ay
paid
▁ald
▁Disp
▁Rena
▁flawed
▁converting
omial
▁Todd
▁Wade
▁Final
▁gravy
▁whirl
▁Sciences
▁freshman
▁profoundly
refrigerator
enic
ocyt
creas
atican
▁annex
▁jones
▁Danish
▁pottery
▁colonies
▁purified
▁expounded
▁prevalent
▁welcoming
je
▁Shu
ramer
▁Extra
▁attic
▁shades
▁Watching
▁stalking
▁esophageal
▁substitution
CS
inv
▁bif
ozoic
▁LAPD
▁shin
▁cirrh
▁Merlin
▁ironic
▁Content
▁necrosis
▁consultants
▁conductivity
uba
seen
▁ATM
osome
▁Film
▁bible
oglobin
▁Hoping
▁tenure
▁Correct
▁realism
▁Millions
▁enforced
▁imitation
▁enrichment
▁palestinian
note
▁Laz
rency
▁1988
▁gust
hammad
▁mimic
▁tidal
▁Canyon
▁lobster
▁Transfer
▁backbone
▁exported
▁immature
▁persever
asms
▁Ship
▁upro
▁muddy
▁salts
▁Knight
▁afghan
▁yelled
▁festivals
▁impedance
▁outsiders
▁psychopath
▁bureaucratic
aidu
▁Zone
▁serp
▁liner
▁rusty
▁Curtis
▁cucumber
▁encephal
▁enriched
▁goodwill
▁RNA
▁slab
redited
▁Graham
▁mongol
▁Somalia
▁rubbing
▁tractor
▁Thompson
▁alarming
▁graphite
▁footprint
▁sparkling
▁diminished
▁LAN
▁Mei
▁yan
▁pots
▁indign
▁maiden
▁coaches
▁miracles
▁constituent
▁conventions
FF
ACT
▁yun
▁nude
▁Plaza
▁annih
▁antiv
▁comet
▁Bailey
▁Polish
▁crooked
▁Highness
▁computed
▁exercising
bia
▁350
▁expon
▁Antonio
▁angular
▁consort
▁balances
▁intimacy
jar
▁limp
▁tilt
▁mortar
▁insider
▁johnson
▁astronomers
▁indefinitely
▁Fro
▁modal
▁intang
▁arsenic
▁moistur
▁workload
▁speculative
▁Ya
▁Flat
▁warranty
▁nightclub
▁descendants
▁universally
oam
nesia
▁Moroc
▁Yemen
▁wedge
inceton
▁offend
criptions
▁comforts
▁autograph
UD
hetti
▁Wave
▁jane
▁Jackie
▁Unable
▁Nicholas
▁vicinity
ods
rig
▁buds
▁tann
▁sadly
▁dubbed
▁slogan
reaching
▁cruelty
▁exclude
▁depended
▁meltdown
▁cardboard
▁cn
▁masc
indust
▁bosom
▁bitten
▁Stanley
▁determin
▁infantry
ongs
▁Abe
abama
thren
▁Bert
▁dice
▁gull
▁tails
▁invade
▁archive
▁dragons
▁milling
▁collects
▁fingerna
▁parasite
▁sponsored
▁recognizes
▁transitional
ducive
▁culpr
▁cinnam
▁devised
▁jackson
▁sneaking
▁Princeton
▁acquiring
▁diligence
▁standardization
RA
▁Mi
▁arson
▁grams
▁Dallas
▁Witness
▁motions
best
▁gin
▁Airl
▁zoom
Another
president
▁fishermen
▁termination
▁degeneration
jac
rone
▁3000
▁bing
▁Wuhan
▁beads
angling
▁bomber
▁logged
▁mysteries
▁Cooperation
▁ObjectiveTo
▁87
▁epilepsy
▁Happiness
▁impairment
▁nud
tling
▁Henan
▁anonym
▁bodily
▁remainder
▁initiation
▁disarmament
▁legislature
▁cd
▁vi
Each
▁Liz
racks
▁adip
▁fitt
▁fors
▁morals
▁contend
▁imagery
▁prudent
▁expelled
▁ligament
isse
▁fron
forest
▁unset
▁soared
▁ureter
▁zombie
▁100,000
▁carrots
▁corneal
▁Certific
▁accessed
▁affinity
▁provoked
▁updating
▁92
▁BEEN
wealth
▁Vince
▁hacked
▁barrels
▁dwelling
▁proposing
▁foreground
Last
▁mim
owski
ippers
isance
▁Siber
▁antic
▁mosque
▁sweets
▁Genetic
accharides
YS
even
▁rut
▁Murd
wegian
▁Photo
▁ofthe
▁tents
▁spared
▁bittern
▁cholera
▁Churchill
▁exceeding
▁Eff
▁Wine
▁Ralph
▁Kosovo
▁saline
▁trails
▁employs
▁formats
▁illicit
▁analytic
▁tolerant
▁academics
▁Pic
▁laz
▁cycling
▁encoding
▁generators
▁peacefully
▁unfamiliar
▁anticipation
▁liberalization
Bl
▁FM
hess
ouver
▁Nash
▁Burma
▁salty
idating
▁deceit
▁incarn
URE
china
▁Page
▁smack
▁magist
▁martin
hibition
▁catholic
▁radicals
▁wrapping
▁nominated
▁indications
▁LE
stri
wich
▁12-
▁Bao
▁Nov
▁jog
▁loaf
▁Wales
ogeneity
▁specializes
100
icut
look
linked
▁wastes
▁literal
▁neutron
▁transdu
▁Alzheimer
▁conscient
BP
CP
▁é
▁FT
▁dove
istine
itures
▁bloods
▁bounty
▁ceased
▁gravel
▁newcom
▁concise
▁despise
▁germination
▁indifference
jia
ickers
▁Carry
▁Nepal
▁Cannot
▁kidnap
▁Consult
▁condoms
▁offline
▁incurred
▁insomnia
▁patriotic
▁alteration
▁consultancy
▁containment
roads
▁fluff
iminary
workers
▁Battle
▁weighs
▁Winston
▁shenzhen
▁invariably
▁neighbouring
▁demonstrators
Com
▁PI
hana
uson
▁Kan
▁Earl
▁amyl
solete
▁Hyper
▁venom
aghetti
▁thumbs
▁vintage
▁Mandarin
▁equities
▁flirting
▁conducive
▁critically
▁interchange
bn
opus
▁BUT
idian
▁Diam
▁Keyn
▁polio
▁terra
▁Import
▁demean
▁performer
▁Experiment
▁hydrolysis
▁evaporation
▁photographic
▁SN
akia
anto
▁Crazy
▁Organic
▁hardened
▁tribunal
▁overlooking
▁neurological
▁DIDN
▁pric
▁jihad
▁notch
osphate
▁wither
▁bribery
▁fisherman
▁Renaissance
▁recreational
▁BBC
▁PLC
▁SQL
unity
▁Core
▁Rule
▁dich
▁Colin
▁couId
omintang
▁Regular
▁referen
▁Imperial
▁compiler
▁marching
▁angu
ienced
▁5,000
▁Haiti
▁sushi
▁columb
▁Babylon
▁awaiting
▁nineteen
▁Ultimately
▁rebuilding
uz
aic
zzo
▁Ran
gated
▁Twice
account
rescent
▁airway
▁boosted
▁composer
▁pandemic
▁skeptical
▁conditioner
▁personalities
▁Pun
▁dab
▁dav
onian
roots
▁actu
nessee
▁Whole
▁juicy
▁Indiana
▁Leaders
▁Quickly
▁adapter
▁celestial
▁stagnation
FS
chs
▁sip
agged
shoot
▁ausp
border
▁piled
▁repro
▁tiles
cutting
▁disable
▁discounts
▁Understanding
▁administrators
gled
inse
lash
actor
kered
▁skyl
▁Logan
▁depri
▁cloudy
▁kisses
▁Evidence
▁evacuate
▁encrypted
ITT
▁84
aley
▁Ont
jamas
urnal
▁1987
ventus
▁Sonny
▁Server
▁hypers
aturated
▁Theoret
▁metadata
▁upgrading
▁sightseeing
▁depreciation
▁entrepreneurial
tie
efan
mort
▁bask
▁canon
▁Hannah
▁Goldman
▁Tourism
▁drained
▁getaway
▁plentiful
▁retaining
▁Sweetheart
▁negatively
▁fluctuations
akin
astom
atist
▁Godd
▁exor
▁antif
▁Freeze
▁Prison
▁allied
▁eighty
▁daytime
▁puzzled
▁summoned
▁advocated
▁favorites
▁outskirts
▁signatures
▁participant
▁unavoidable
22
game
▁Ned
▁Chop
▁Xing
▁ethic
▁bunker
▁census
▁elusive
▁subsidy
▁schedules
▁assistants
▁fundamentals
▁WA
ifty
dream
▁slit
Besides
▁lasers
▁profitability
pine
bucks
▁lily
▁moth
matism
▁Mitch
▁outwe
▁tasting
▁Commerce
▁iteration
▁statutory
▁favourable
▁transmitting
gia
MENT
ishly
▁Melan
▁Stress
▁almond
▁embryos
▁metabol
▁treason
din
▁cuff
▁Laser
▁opium
▁skysc
▁acidic
▁barren
▁pillars
▁Wonderful
▁whispered
▁beforehand
▁decorations
▁Zh
boys
edar
ydia
▁Tree
▁peep
▁apost
▁huang
▁worsh
▁beacon
▁nailed
affected
▁Algorith
▁ancestor
▁notified
▁screamed
▁flowering
▁limestone
▁proportions
▁Cere
▁leuk
▁Baker
▁avenue
▁denies
▁encaps
▁faulty
▁rugged
uttering
▁delegate
▁massacre
▁temperate
Add
fed
▁jon
orman
▁Babe
uddled
▁frogs
▁rearr
▁hunted
▁whisky
▁expands
▁salvage
▁driveway
▁messaging
▁announcing
inflammatory
▁Claus
▁Literature
▁programmer
▁consciously
umbo
▁30-
▁Jar
▁glauc
▁maths
▁coroner
▁erupted
▁freeway
▁slaught
▁calculus
▁clicking
▁fortress
▁problematic
hat
▁Ak
▁Maya
▁harb
▁mosa
▁sunk
oxacin
onesian
▁Lehman
▁Philos
▁indebted
▁irresist
▁refining
▁impartial
▁hesitation
▁noticeable
▁aggregation
HA
stant
▁fibro
▁herald
▁hydrop
▁cloning
▁folding
▁Protocol
▁figuring
▁Palestine
▁paralyzed
▁Laboratory
▁whereabouts
▁Distribution
tan
imet
fired
▁Plat
▁fiss
▁unsc
itance
▁Hebei
▁claws
▁Elaine
▁Target
▁fueled
▁kettle
▁molten
▁yearly
▁Raymond
▁virginia
▁linguistics
▁PO
▁lib
▁newer
▁retina
▁saliva
▁venous
▁Subject
▁bananas
▁banging
▁benefic
▁fractal
▁imitate
▁perplex
▁appealed
▁projections
oyle
yield
▁Gosh
geries
▁motto
▁granular
▁knitting
▁milestone
▁pneumatic
▁reformation
DM
Rec
rile
▁188
▁Yup
▁File
▁Gand
▁Stew
▁apert
▁bikes
▁tresp
▁plight
▁soaked
▁Thirdly
irmingham
▁Chandler
▁inventor
▁federation
▁Aqu
▁SEM
ooping
▁Crime
▁Flight
▁intrac
atellite
▁captive
▁belongings
▁conditional
deg
▁79
isha
▁ful
▁Cath
▁whim
lahoma
umbers
▁Guide
▁Wendy
versely
▁Immedi
contract
olerance
▁georgia
▁evenings
▁upgraded
▁weighted
▁sexuality
map
▁RA
▁1986
▁Award
▁bowed
▁Liquid
▁chapel
▁radiant
▁passages
▁populist
▁planetary
▁Innovation
▁recognizing
cape
▁101
▁Fly
▁bolts
▁pests
▁Galile
educated
oprotein
▁densely
▁rampant
▁platinum
▁permissions
▁commissioned
DR
▁tier
▁Buddy
▁joins
▁Oregon
cultural
urethane
▁Awesome
▁Sweetie
▁gelatin
▁stylish
nutrition
▁solvents
▁strained
▁terminate
▁sedimentary
hoot
allic
▁Math
modern
▁McGee
▁gamma
critical
▁iceberg
▁homemade
▁interpreter
▁Administrative
skin
▁ASE
▁Eye
▁Wes
▁dre
▁gab
agnet
ravel
▁MEAN
▁craz
▁Jamie
▁Touch
▁riots
essment
▁Complex
▁Hamilton
▁backdrop
▁betrayal
▁listener
▁triggers
▁Materials
▁prestigious
oad
▁Freud
▁acety
▁mucosa
▁sloppy
▁rewarding
▁dispatched
▁imperialism
▁61
odor
▁REA
doing
▁Anim
▁Neal
▁maze
▁cheng
▁niger
▁hotter
▁sorted
▁counters
▁happiest
▁periphery
▁Preliminary
▁protectionism
bot
enz
zzi
perm
▁sow
▁Gill
▁palp
▁anecd
sighted
▁Brenda
▁Supply
▁surgeons
▁strangely
▁diagnosing
▁celebrations
wire
▁Shot
▁peek
▁panor
▁abuses
▁nether
▁Explain
▁Myanmar
▁coconut
▁sarkozy
▁weaving
▁carnival
▁pathways
▁Naturally
▁convertible
▁diversification
IES
ycin
▁Hai
▁hua
▁jul
▁bord
▁Liang
▁Randy
▁havoc
▁Hudson
▁Juliet
▁Mathem
▁Norman
▁clergy
▁stenosis
▁exhibited
▁hamburger
▁troubling
▁testosterone
▁antibacterial
arial
urate
▁Capt
▁Yours
profile
umbered
▁clocks
▁artwork
▁robbers
▁contamin
▁Ambassador
imo
kov
bred
hart
▁Arist
▁Keith
▁flare
▁vomit
▁whack
▁Struct
▁recipes
▁Assuming
▁founders
▁humorous
▁uprising
▁debugging
▁apologized
▁censorship
▁voluntarily
▁formaldehyde
▁SOM
▁lyn
perse
▁Expo
▁swung
▁evange
▁optics
▁trusts
▁seating
▁heavenly
▁Jefferson
▁arrogance
fty
▁DA
▁Cer
athed
▁elic
▁amber
▁embody
▁differs
▁endured
▁removes
▁embodied
▁resisted
▁wandered
▁distinctly
ansu
▁Bin
▁Cob
▁Doe
▁gynec
▁haste
▁manic
▁protr
▁sudan
▁digits
▁Factory
▁fugitive
▁motivate
▁marvelous
▁refractory
enos
mont
▁tory
▁Delhi
▁excel
▁reins
▁canned
▁mating
▁pinned
▁revolt
▁Hungary
▁genital
▁embodies
▁insecure
▁panicked
▁weddings
▁proceeded
▁trembling
▁ceremonies
▁vaccination
▁adaptability
▁collectively
▁contradictory
ais
ympt
antha
ractive
▁Recogn
▁sulphur
▁highways
▁perpetual
ourt
▁daw
click
shaft
▁stur
balance
▁tuning
ensation
▁Century
▁legends
▁weeping
▁biography
▁conquered
▁teachings
▁collaborative
opter
▁dusk
▁Astron
▁bumper
▁grudge
▁overst
▁Atlantis
▁modernity
▁artificially
each
▁TELL
▁aided
▁amput
▁trench
▁peanuts
▁priorit
▁endeavor
irectional
management
▁allergies
▁conspicuous
▁disappearing
▁spectrometry
▁ku
mile
▁Sri
▁jeff
ankind
▁Advis
▁ethyl
▁scold
▁scour
▁Regist
▁cradle
▁lawful
▁Plastic
▁incense
▁marital
▁catering
▁pancreas
▁diaphragm
▁adolescent
▁encounters
▁heterogeneous
aku
laus
mons
▁thaw
▁REALLY
▁itiner
▁senile
▁eagerly
▁antidote
▁blackout
▁disappro
▁lymphoma
▁Effective
▁ambiguous
▁metropolitan
alis
▁Kir
▁shi
assic
▁lush
▁reap
placed
▁ounce
▁syner
▁skipped
▁customary
▁historians
▁metropolis
▁objections
▁repetition
▁millionaire
▁interrupting
iko
rase
▁Kai
▁Zoo
▁rej
opsis
oslav
▁quiz
▁overe
▁slick
▁Junior
▁Leaves
▁blacks
▁chilly
▁dagger
▁fluent
▁bracket
▁obsolete
▁fractured
▁Increasing
osol
▁Tox
▁fals
pecial
▁disprop
▁limo
funded
ivated
▁rooft
▁scaven
irlfriend
▁Introduction
▁42-
rafts
ermost
▁Protest
▁packets
▁proudly
▁Football
▁regiment
▁vertebra
▁nineteenth
▁butterflies
orf
▁Et
avan
cret
oner
abase
▁Natal
▁Tiger
▁Expect
▁Turner
▁orgasm
▁shines
▁strata
undering
▁compute
▁expired
▁attained
▁misunderstand
24
▁hs
ipes
pret
▁Silk
▁indis
ochastic
▁Finland
▁reclaim
▁blending
▁eruption
▁unrelated
▁pedestrian
▁reductions
oni
Part
owner
policy
▁Tracy
▁awaits
▁hugely
▁plummet
▁upwards
sensitive
▁Columbus
▁Previous
▁mitigate
▁precinct
▁melancholy
▁NT
▁CTU
▁xia
▁agon
▁Parad
▁Mostly
▁brandy
▁damping
▁sleeves
▁creditor
▁submerged
▁bitterness
▁misunderstood
▁Oak
▁Cycl
▁Narr
▁plut
▁sewer
inburgh
▁shores
▁knights
▁defective
▁counterfeit
▁outsourcing
▁programmers
35
▁Dust
▁overr
▁tuned
▁Stuart
▁emblem
▁microm
missible
▁dazzling
▁exporter
▁youthful
▁cleansing
▁foreigner
▁parenting
▁pleasures
▁inhibitors
▁relentless
▁hierarchical
▁lobb
▁Chrys
▁scoop
▁speck
▁securing
▁CV
coon
▁paw
▁Host
▁cyto
▁hump
▁nanop
▁velvet
▁Chengdu
▁jehovah
▁resilient
▁Strengthen
▁irritation
▁laparoscopic
▁Hab
ctica
▁barb
▁mega
▁pian
lector
terror
▁Lovely
▁bonded
▁drople
▁neuron
▁arrests
▁marched
▁asteroid
▁bursting
▁famously
▁seawater
atisfaction
▁conduction
▁discontent
▁excitation
▁Observation
▁democracies
▁discouraged
▁infringement
zhi
▁BA
▁Hend
▁amel
▁taxon
orative
▁Arabic
▁diligent
▁kinetics
▁sabotage
▁manipulated
27
zai
achy
coll
cloth
seems
▁lull
▁spor
adjust
▁graves
▁vanish
speaking
▁Yankees
▁endemic
▁lunatic
▁detached
▁souvenir
▁topology
▁continual
▁sunglasses
▁destinations
alus
leaf
yers
▁Alt
elope
▁rhiz
akened
▁Panel
▁Perry
▁prank
▁warns
▁Samuel
▁Survey
▁replen
▁scotch
▁bedtime
▁Position
▁dishonest
▁identifies
▁intensified
GS
PL
eder
when
▁Sut
lique
▁disd
▁Hebrew
▁Wanted
▁awhile
▁fooling
▁rocking
▁moreover
▁Mongolian
▁exclusion
▁meta
▁oint
▁nylon
▁redes
▁Desert
▁opaque
▁reminis
▁tedious
▁Marriage
▁decentral
▁Temperature
▁ko
vency
▁galvan
▁neatly
▁phenol
▁recycle
▁squares
▁numbered
▁pointless
▁stakeholders
▁peg
▁Tall
obiles
▁Brill
▁verbs
▁Munich
▁chores
standard
▁breakup
▁exposing
▁synthesize
▁fertilization
bek
ouge
umpy
ollah
▁Jeez
▁alum
▁Heath
▁Merry
▁intro
▁needy
▁burner
▁elites
▁provoc
▁rubble
▁Bangkok
▁pillows
▁trumpet
▁arguably
▁novelist
▁bilingual
▁intersect
▁multitude
▁renovation
▁Authorities
▁Ax
ipers
▁moms
imetry
▁Daisy
otation
▁Puerto
▁chrome
▁crater
▁warmly
▁atheros
▁clinics
▁hacking
▁chongqing
▁embodiment
▁billionaire
▁enlargement
▁incompetent
▁subordinate
Pe
▁Bour
▁Pool
▁Trip
▁lance
iquette
▁Lauren
▁malign
▁vortex
▁wrinkles
▁Christine
▁inhibited
▁judgments
▁procedural
▁penetrating
▁volunteered
▁condensation
IIy
▁89
oker
▁Nav
arynx
▁scum
▁methanol
▁prepares
▁sponsors
▁schooling
▁ky
▁lik
▁Bomb
▁Rapid
▁harry
▁Xinhua
▁joyful
▁shaved
▁abscess
▁Domestic
▁diminish
▁questionable
OWN
▁Pul
▁kat
amate
▁carve
▁armour
▁distal
▁arsenal
▁financed
▁irrevers
RL
AIN
OUS
xing
▁fon
▁Gong
second
▁Lance
▁timid
▁lender
▁impetus
▁coaching
regulation
▁admirable
▁exhaustion
▁periodical
▁procession
▁excessively
▁exceptionally
rik
▁---
▁Chu
▁Iss
ilong
▁Orth
▁dodge
▁eaves
▁daniel
▁jewish
▁landslide
▁sociology
▁Mechanical
▁Properties
▁ecosystems
▁suppressed
▁smartphones
▁scientifically
oso
▁94
▁tru
▁sauna
▁Nicole
▁berlin
▁pitched
▁popping
▁drifting
▁silicone
▁Marketing
▁classmate
▁kilometres
▁tendencies
Us
atern
▁Fell
▁Gast
▁cheers
▁flavon
▁whereby
▁doubtful
▁ascending
▁discarded
▁Sell
feeding
reating
▁corpus
▁torped
▁benzene
▁constru
▁Campbell
▁charcoal
▁comprise
▁enrolled
▁implanted
▁comprising
▁Competition
ORT
ifu
▁Chun
▁oily
▁reed
thouse
▁stash
▁tetra
▁Advert
▁blouse
▁shrine
oporosis
▁integer
▁proclaim
▁everlasting
hex
melon
▁1985
▁blot
▁tung
antics
▁chast
▁Frankly
identified
▁shipments
▁contingent
▁expenditures
▁SL
raged
uitary
▁lanes
▁Dalian
▁cavern
▁chiefs
urbation
▁lattice
▁refrain
▁slammed
▁yielded
▁brightest
▁responsive
ifter
▁lads
plings
▁Merkel
▁believer
▁residues
▁Boulevard
▁connector
▁violently
▁aspiration
▁durability
▁stimulated
▁cultivating
umi
▁ji
bond
dles
▁chic
▁Dubai
▁clips
▁notices
▁unauthor
▁physicist
▁blackberry
▁concession
▁invaluable
▁philosophers
▁approximation
▁polysaccharide
ooped
▁Bree
▁mute
▁tabl
▁Repeat
▁lotion
▁midfielder
▁pathogenic
▁ubiquitous
hs
amma
anya
inav
inky
ishi
ithe
▁API
▁Tie
▁coy
ouche
▁unic
liable
▁Autumn
▁Bryant
▁sliced
▁glanced
▁royalty
▁Strategy
▁ethylene
▁fiercely
▁oppression
▁patriotism
▁biodiversity
zu
▁pim
icans
▁clad
▁geek
▁pens
▁swam
▁felony
▁Wearing
▁ruining
▁seaside
▁sleeper
▁steward
ittsburgh
▁cheapest
▁peroxide
▁fulfilling
▁illumination
▁unsustainable
▁Fi
stasy
▁Rita
▁embro
▁Dexter
▁Spread
▁merkel
▁Railway
▁bolster
▁listens
▁stunned
▁Maryland
▁injections
▁managerial
▁youngsters
▁Intelligence
▁Hyp
odian
▁Mona
roller
▁pearls
▁wraith
▁balloons
few
gee
▁Map
▁Lana
▁Nurs
▁Phase
▁irish
pically
▁risked
▁compile
▁divides
▁presently
▁Completely
▁imprisoned
oa
olan
▁Nas
Their
ights
remes
inseng
▁bewild
▁thomas
▁Brought
▁Chamber
▁Kremlin
▁bravery
▁militia
▁comeback
▁symphony
▁executing
▁reluctance
▁supervisory
▁countermeasure
zyme
▁Khan
▁lign
worked
▁epoch
▁stitch
▁Setting
▁emancip
▁admitting
▁acquainted
▁cancellation
▁′
ags
pric
▁TALK
opause
Despite
▁migrate
▁proverb
▁offenders
▁Television
▁disproportion
▁Mt
▁kg
riad
▁Gro
▁pes
built
▁HTML
▁crib
broken
ovirus
▁Sugar
▁THING
▁boxer
▁tease
▁Luther
▁inmates
▁morally
▁blankets
▁siblings
▁stranded
▁terminated
▁supernatural
pad
ivar
▁Ach
venth
▁lett
▁Upper
▁flats
▁Instru
▁Taipei
▁Toronto
▁railways
▁radically
▁Resistance
▁comparisons
▁substantive
▁consequently
▁37-
▁Lag
▁Saul
▁obliv
▁snail
roidery
▁Denver
▁strait
▁topped
▁burglar
▁treaties
▁complexes
▁gardening
▁chromosomes
▁infiltration
jet
tea
▁Gi
▁MM
▁fus
verts
▁5000
▁THEM
▁dine
▁disli
ichever
▁Chronic
▁singers
▁solitude
▁scratched
▁Electrical
▁recombinant
▁transfusion
▁。
otor
▁sag
annie
ettes
▁Duck
▁asas
▁goof
▁tame
olithic
▁Farmers
▁fleeing
▁platelet
▁crackdown
Your
rice
▁unatt
▁coloss
▁honors
▁rubbed
▁Concent
▁footing
▁nicotine
employment
▁seedlings
▁timetable
▁toothpaste
▁inclination
ws
▁shun
▁Griff
▁Janet
▁mason
▁miser
▁spans
akhstan
ugoslav
▁Alfred
▁Sodium
▁rookie
▁unbear
▁succumb
▁occupies
▁formulate
▁distributor
▁ET
oshan
tails
▁Beer
▁Rocky
▁thine
▁urges
▁Morris
▁cyclic
▁owning
▁torrent
▁Florence
▁Negative
▁genocide
▁monarchy
▁welcomes
▁unconventional
Dr
UE
onese
season
▁Frost
itories
▁nuclei
▁gardener
▁validated
▁centrifugal
▁northeastern
added
▁Warm
▁Krist
▁disks
▁trich
uristic
▁Milton
▁jersey
▁tumour
▁iranian
▁Reverend
▁thoracic
▁battalion
▁lingering
▁excavation
▁intangible
▁demonstrating
atio
illo
henol
rones
▁tink
▁trou
▁epist
▁compose
▁stamped
▁Cambodia
▁exercised
sum
▁ail
optic
▁needn
▁sails
cession
ecessors
▁Heather
▁aligned
▁bruises
▁presume
▁vaginal
▁skeletal
▁housework
▁repression
▁granddaughter
▁Kath
▁wink
▁ASEAN
▁Patty
igating
▁bishop
▁paused
▁piracy
▁spices
▁Element
▁humility
▁Economics
▁alliances
▁unfinished
▁consolation
▁Gao
oodle
▁dizz
▁feng
▁slash
▁versa
▁weave
▁choked
▁ninety
▁Brennan
▁Persian
▁rumours
▁impoverished
▁Wat
▁goin
atorium
▁battered
▁accomplice
▁instrumental
▁TW
▁125
▁Adj
▁Gem
ishan
▁Pred
▁pope
▁Recon
▁Takes
▁fasten
▁mangan
▁Chicken
▁spiders
▁virtuous
▁stationed
▁terminals
▁ni
cool
ousse
▁Flow
▁WORK
▁anis
▁leng
▁Congo
▁abbre
▁folly
▁Connor
▁innate
▁Silicon
▁dolphin
▁recount
▁insisting
▁courageous
mil
ectin
juven
▁hive
▁sock
▁semen
▁essays
▁reiter
▁statues
▁depicted
▁withdrew
▁bartender
▁starvation
rea
▁Kw
▁recap
▁scares
▁truths
distance
▁ensured
▁multiply
▁flattered
▁therapies
▁Bangladesh
▁beneficiary
▁flourishing
▁prostitution
▁visualization
Cont
▁Wide
▁lifts
▁conjug
▁coupon
▁fucker
language
▁inadvert
efficiency
▁specifies
▁explosions
▁performers
▁distributions
▁71
nest
▁0.5
▁rio
▁ses
▁fred
▁gravey
▁dictate
asionally
▁licenses
▁Portuguese
▁predecessors
FT
SD
▁Dai
▁Egg
▁Cele
▁chili
▁haunt
▁Chocol
▁bipolar
▁scatter
▁torment
▁Vladimir
▁doorstep
▁commanding
▁£
awi
bast
glut
▁jab
ctive
▁Romeo
▁Saddam
▁funnel
▁noodle
▁Leonard
▁cathode
▁liaison
▁sideways
▁portrayed
Furthermore
▁millennium
nas
ohn
▁fuk
erald
▁Cate
▁boobs
▁Alumin
▁Panama
▁citing
▁climax
▁steroids
▁parasites
▁versatile
▁dependency
▁Lao
▁onc
orrhea
▁noses
▁Declar
▁Source
▁Protein
▁Suggest
▁outfits
performance
uki
osit
▁Bun
▁ari
orect
▁Cairo
▁ovary
▁brushed
▁risking
▁valleys
▁brethren
▁remedies
▁extraordinarily
orp
mund
▁Nar
▁gird
▁pans
cision
▁moons
▁Lisbon
▁hither
▁stalled
▁covenant
▁symmetric
▁accusation
▁accommodations
▁"(
holm
▁Hughes
▁nigger
▁Melinda
▁fluoride
▁oriental
▁soothing
ueh
jury
▁Eva
▁PVC
▁Vic
▁Shop
ofield
▁Words
▁invin
▁Lounge
▁cursor
▁gallon
▁Mitchell
▁finishes
▁gangster
ufficiency
▁copolymer
▁exporting
▁hilarious
▁pathogens
▁technicians
▁comprehensively
iae
▁Lane
▁spook
imetric
▁multic
▁pastor
▁Flowers
▁Qingdao
▁hideous
▁smokers
▁auditory
▁predator
▁textiles
▁spaghetti
▁insignificant
▁neighborhoods
▁Bast
▁Qian
eating
ivities
▁brides
▁kitten
▁acidity
▁ambient
▁resumed
▁scanned
▁earrings
▁seizures
▁agreeable
▁inspected
▁distressed
▁expectancy
▁resilience
▁technician
iscrim
▁Dance
▁Kings
▁palms
▁stent
ropping
▁breeds
▁teleph
▁breadth
▁freshly
▁continents
▁Certificate
▁contestants
▁terrestrial
▁AV
▁Ja
▁Nad
▁neb
ascus
cents
▁bagels
▁inexper
▁grabbing
▁stitches
▁analysing
▁humiliated
▁ornamental
▁psychologists
▁Kung
▁Reid
letter
marked
▁footh
▁Kramer
▁prolet
▁soften
▁thinker
▁impressions
▁vand
▁barley
▁hacker
▁liquef
▁wisely
business
▁Returns
▁Virtual
▁postponed
▁comforting
▁undermined
▁Enterprises
▁humiliating
avor
▁bir
▁Lloy
▁Adams
▁Frame
▁shone
▁vastly
▁videot
▁prophecy
▁disregard
▁sequential
alm
dyn
▁Ble
▁Haz
▁Pel
▁User
▁cove
▁hawk
ezvous
▁Kathy
▁puber
▁herpes
▁consolidated
▁civilizations
▁confidentiality
▁Utah
▁Tough
▁froze
▁prizes
rocessor
▁entropy
▁grenade
▁overdue
▁uniquely
▁guerrilla
▁inversion
▁exploiting
▁interfering
fen
▁ak
iddy
pipe
uces
▁knit
▁sprang
▁Judging
▁flushed
▁reagent
▁pinpoint
▁astronomy
▁prompting
▁superhero
OSE
OST
film
▁SEC
▁Jung
▁chir
▁ridd
▁Store
closure
ustered
▁Brooke
▁diploma
▁scaring
▁Fantastic
▁asymmetric
▁simulations
▁concentrating
etra
▁Fool
iduous
▁Clare
▁Rural
▁Sadly
▁coded
▁Terror
▁dismal
▁eldest
▁rained
▁caliber
▁paramed
▁Partners
▁cohesion
▁extrater
▁collectors
▁headmaster
▁relational
▁variability
▁geopolitical
▁modifications
BE
ganda
lycer
▁Tina
▁paddy
ubility
▁Afraid
▁Danger
▁arouse
▁parrot
▁notions
▁Measures
▁cinnamon
▁concerts
▁examines
▁dangerously
▁enlightened
▁Craw
▁tabs
lexible
▁Plenty
▁hinder
▁orthod
urations
▁scarlet
▁aperture
▁downside
▁township
▁intricate
▁photographed
wey
▁81
ldon
▁Fou
▁Vac
▁skins
▁Hainan
▁cystic
exchange
ogenetic
▁Driving
▁rethink
▁shields
infection
▁stabilized
opo
umm
▁LP
▁Bac
ority
▁1920
▁1982
▁Blow
▁gaza
▁rive
▁Sammy
▁Audrey
▁Peking
▁cowork
▁impregn
▁accomplishments
gang
▁Bio
▁tuck
cursor
hthalm
ravity
▁bikin
▁Sharon
▁Stella
▁deflect
▁Alliance
▁incumbent
▁flashlight
▁individuality
▁practitioners
App
cohol
▁slug
alians
locked
▁icons
▁slips
aseless
▁breaker
▁brittle
▁flashed
▁turtles
▁Programme
▁cirrhosis
▁outrageous
▁simulating
Such
icus
itas
▁Arn
allen
igator
▁pixel
▁humane
▁radios
▁tucked
▁looming
▁pasture
icultural
▁Positive
▁classify
▁diagrams
▁blueprint
▁replicate
▁toothbrush
▁correctness
atown
▁cape
▁spam
udence
▁bulbs
▁enacted
▁setback
▁unlucky
▁achieves
▁implants
▁twilight
▁veterans
▁deficient
▁directing
▁punishing
▁{
eau
olph
▁nim
absor
still
▁Scan
▁petals
▁Douglas
▁fingert
▁hydroxy
▁Maintain
▁dripping
▁responds
▁Vietnamese
▁electrochemical
Yet
cribes
▁Percy
▁Rough
▁pores
▁tonic
▁costing
▁polling
▁stanley
23
furt
heet
▁Aid
▁HOW
color
natal
▁Chad
▁Peng
▁vind
ashmir
▁paren
▁reaff
▁skirts
▁stature
▁ballroom
▁cleaners
▁spaceship
▁reinforcing
▁restraining
▁symmetrical
▁Mia
▁kan
▁pla
▁slid
▁Ghost
▁login
▁nitric
▁surrog
▁warden
relation
▁panties
▁toilets
▁affluent
▁eyesight
▁oilfield
▁outsider
▁scandals
▁accessing
onious
▁Demon
▁jumper
▁rivalry
▁runtime
▁zealand
▁conceive
▁carpenter
▁persuasive
▁brotherhood
▁conflicting
▁Hoo
▁Mull
▁duly
▁alumn
defined
▁Prices
▁barber
▁majors
▁blended
▁tattoos
▁Accounting
▁incremental
▁unsuccessful
amo
grand
▁jong
▁Adult
▁dwind
▁rails
▁typed
▁Stefan
▁noting
▁preach
▁Official
▁vigilant
▁excluding
▁Processing
▁straighten
▁polyurethane
▁1-
otle
forms
▁Diet
amycin
▁adore
▁Medium
▁maniac
▁doubted
▁parting
▁shaving
▁glamorous
▁willingly
▁Comparative
▁deficiencies
▁susceptibility
Re
▁DP
▁Fuk
▁GIS
▁NEW
▁cooks
▁Slowly
▁piping
▁predic
▁shroud
▁Helping
▁lookout
▁Universal
oxia
ported
plastic
▁helium
▁racism
omething
▁desolate
▁envision
▁settlers
▁superpower
IDE
utt
▁91
▁Glen
cipher
▁Wheel
▁chord
▁Histor
▁Record
▁domest
▁cheering
▁imperson
▁pounding
▁roadside
▁speculate
▁Objectives
chin
▁unce
riters
articles
▁fossils
▁rebuilt
▁Louisiana
▁Synthesis
▁insertion
▁pipelines
▁powerless
▁implements
wash
▁Lor
▁ging
▁tyre
▁Craig
▁anhyd
▁Harper
▁choking
▁immoral
▁narciss
▁reddish
itization
▁fabricated
▁Particularly
▁laboratories
uh
vor
▁zhu
castle
▁Suite
▁melon
Chinese
▁barric
▁posing
▁Holding
▁Turning
▁scaling
▁slapped
▁visually
▁detachment
▁extremists
▁insecurity
▁installations
▁Representative
▁FDA
▁lew
▁sci
▁wik
andel
▁litt
▁warp
▁amphib
▁greasy
▁Cutting
▁grazing
▁insanity
▁extrusion
▁sandstone
▁adrenaline
▁stochastic
iona
▁Mix
▁Kirk
▁clap
ionage
▁Chlor
▁shaky
▁50,000
▁Mercury
▁abusive
▁floated
▁measles
▁polishing
▁footprints
midt
▁Ing
▁Cock
▁Gray
▁HAPP
▁teII
atemal
▁misdi
▁unsafe
▁aneurysm
▁punching
▁arranging
▁triangular
▁homogeneous
▁perceptions
▁undermining
▁northwestern
▁eluc
▁ponder
▁learner
▁Possibly
▁assorted
▁lawsuits
ocarcinoma
▁Numerical
▁heightened
▁processors
▁unreliable
six
▁CB
poena
▁Away
▁Lack
▁axle
▁crem
▁harp
▁pads
▁thro
▁Negro
▁abound
▁mammal
▁Fashion
▁Provides
▁decoction
▁cumulative
▁eyewitness
▁Measurement
▁Hm
lore
vals
▁Zen
wanda
▁Gave
▁Ivan
▁cite
▁Falls
orption
▁dashed
▁porter
▁saints
Compared
▁Reports
▁flashes
▁rituals
▁typhoon
▁judiciary
▁separates
▁startling
temperature
▁specialize
▁accelerator
▁dislocation
▁oscillation
▁specificity
▁statistically
▁Jr
oeuv
▁Jie
gener
▁Kurd
▁cros
▁jaws
▁Carlo
▁Linux
▁truce
▁hailed
▁dubious
▁muffins
▁creeping
▁militant
▁unrealistic
▁brun
▁Alone
married
▁Wallace
▁bouquet
▁novelty
▁pavilion
▁impending
▁Applications
▁imb
▁taI
▁Burg
covery
orneys
▁latex
▁retin
▁swarm
▁glycer
▁monsoon
▁thirteen
▁constrict
▁intensify
uminescence
▁blackboard
▁`
ISA
arely
▁defy
▁Costa
▁churn
▁atrial
▁mosaic
▁Melanie
▁placebo
▁worldly
▁declaring
▁insulting
▁monastery
▁respondents
▁irresistible
ggle
otto
▁1.3
stall
▁mish
▁sage
▁Diane
orectal
▁concur
▁handsh
▁memoir
▁viewer
▁Diamond
▁destroys
▁deduction
▁hereditary
▁triggering
Mar
▁Cel
there
▁carc
▁uphe
length
oblast
▁Phone
▁scant
ologous
▁anaest
▁granul
▁miscar
▁constip
▁frighten
▁Amsterdam
ieu
▁ki
izzard
▁fiery
▁arabia
▁herein
▁glamour
▁allocate
▁upstream
▁warrants
gard
▁15-
model
▁Dale
▁piez
▁chemo
▁Nevada
▁unarmed
▁extremes
▁telegraph
development
▁dielectric
▁experimentation
▁IA
loat
oebe
▁CALL
▁poke
▁adjud
▁scram
▁ashore
▁shiver
▁uncont
▁Guizhou
▁prisons
▁appendix
▁Formation
▁fantasies
▁precursor
▁supporter
▁emergencies
▁philippines
cale
urgy
▁1984
▁Kobe
▁pane
▁surn
husband
ylation
▁Sierra
▁bursts
▁feeble
▁meadow
▁hobbies
▁latitude
▁Construct
▁ceaseless
▁distinguishing
▁microorganisms
kou
anor
▁nond
anthem
oughed
▁flora
▁stout
▁archer
▁sixteen
▁coloring
▁glaucoma
▁actuality
▁hyperplasia
aden
olis
▁peb
▁tao
burst
dding
lower
▁skim
▁Plano
▁Ricky
▁undis
▁debated
▁forensics
▁institutes
▁conditioned
▁endorsement
▁pessimistic
cine
lass
prus
athic
▁Isaac
▁Butler
▁invoke
▁multid
▁solves
▁unused
▁cardinal
▁restrained
▁experimentally
Can
irms
▁Viv
avier
▁Beng
▁demo
▁unqu
▁3,000
▁Anglo
▁menus
▁Kuwait
▁parted
▁reside
▁plumbing
▁suicidal
▁boundless
▁curvature
▁dormitory
▁harvesting
▁negligence
▁respiration
▁characterize
▁intermittent
nik
rand
uning
▁Mist
▁camb
▁feds
▁glit
▁calmly
▁unexpl
leveland
▁Madison
▁stating
▁steamed
▁Depending
▁reconcile
▁tentative
▁meteorological
En
UP
pop
0000
▁fen
▁Mack
▁leon
▁soar
▁zhou
▁cleft
▁broaden
producing
▁Assistant
▁graveyard
▁commonplace
▁desperation
▁materialism
▁peacekeeping
▁professionally
▁electrophoresis
dec
▁Guo
▁Rum
▁tad
antry
▁unsu
▁redef
▁Peters
▁resins
▁slurry
▁armored
▁orthodox
▁preacher
▁underpin
▁argentina
▁abstraction
▁existential
▁resemblance
▁radiotherapy
▁Sed
▁owl
oyang
▁coli
shield
▁bulls
▁smoker
▁Crystal
▁Growing
▁leopard
▁tornado
▁crippled
▁Diagnosis
▁anomalies
▁Previously
▁Declaration
▁considerate
▁contracting
▁seriousness
assed
▁sane
▁woes
▁adept
▁Remote
▁epithe
▁Vitamin
▁nurture
▁runaway
▁propriet
▁Minnesota
▁Pyongyang
▁capturing
▁detectors
▁disguised
▁staircase
▁preferably
▁intermediary
▁microcomputer
▁ABC
▁Pas
▁ecb
▁fas
akota
clays
▁martyr
▁revital
▁statute
▁slippers
▁troublesome
Qu
lia
oga
▁Tit
▁trun
philis
▁Radix
▁Adding
▁unravel
▁inducing
▁nuisance
▁politely
▁etiquette
▁chocolates
▁courthouse
▁staggering
job
▁Ald
▁Mouse
▁quint
▁Hamlet
▁Allison
▁Amazing
▁aquarium
▁arresting
▁detergent
▁Expression
▁requesting
▁exceedingly
ICK
▁bp
▁cI
▁HAS
▁clog
▁tors
▁Laden
▁Param
▁patio
reeding
▁strife
security
stitutes
▁behaving
▁chitosan
▁narrowed
2-
aro
rers
seat
thon
▁atop
▁Sheng
▁flung
▁Edison
▁cation
▁sensed
illusion
establish
itability
▁bitterly
▁striving
▁landscapes
▁transcription
FA
▁UH
irie
▁Gus
izzie
cluded
haired
ptides
▁Fruit
htaking
▁adversity
▁capacitor
▁inherently
▁uniformity
▁yin
▁Jong
idious
▁Dylan
▁Voice
▁sedan
▁vinyl
▁summed
▁Respect
▁cavalry
▁Almighty
▁Bringing
▁Cleveland
▁airplanes
▁urea
icient
▁Damon
▁chees
▁Bottom
▁acetic
▁aortic
▁raging
▁Vanessa
▁apocaly
▁ferment
▁Drinking
▁comedian
▁endanger
▁grafting
▁ointment
▁subpoena
▁intracranial
LP
TV
ACH
iri
▁Fib
▁Kra
esare
thens
luence
▁Bever
▁myths
▁Memory
▁Michel
▁scrape
ampshire
▁anastom
▁grating
▁narrowly
▁sanitary
▁scotland
▁yourseIf
▁bodyguard
▁locomotive
▁deprivation
▁NM
▁qi
▁nib
▁wei
▁moll
▁nasa
▁pint
▁Anhui
▁Bravo
▁crabs
▁pinea
▁unres
ethoven
▁Telling
▁barking
▁jackets
▁tongues
▁corrective
▁gymnastics
▁dynamically
▁sut
▁Judah
▁Kenny
▁elast
▁energ
▁Franco
▁delinqu
▁onboard
▁cytoplasm
▁unavailable
▁connectivity
▁dissemination
code
▁Nat
▁ply
cliff
▁itch
▁Polic
▁glycol
▁nearer
▁Collect
▁blasted
▁eyeball
▁innovate
▁accession
▁narcotics
▁outbreaks
▁reflective
▁TP
▁oz
oufl
▁HBO
▁jap
▁Ange
▁Hubei
▁chole
▁queer
▁Hotels
▁encycl
▁fixture
▁humming
▁summers
▁chromium
▁jeopardy
▁redirect
▁perseverance
NP
anus
iosis
▁Omar
▁Site
▁rift
▁tamp
untary
▁severed
▁outdated
▁avoidance
▁domination
▁disconnected
▁transporting
Ph
amen
▁Alb
▁pag
▁pas
▁Wald
▁outn
▁Ellis
▁Mozart
▁electr
▁scouts
▁thwart
▁brigade
▁Creating
▁Juventus
▁retarded
▁Algorithm
▁believers
▁southwestern
oyal
▁Syn
▁gul
▁Hide
▁Suff
▁mund
ipedia
robial
▁clout
▁runoff
position
▁sichuan
▁ticking
▁unclean
▁microbes
▁ambiguity
▁importing
▁proclaimed
▁advertisers
▁housekeeper
▁congregation
bler
▁Nig
▁WAY
rolog
▁Brig
▁Nile
▁Rein
▁Rico
▁Tara
string
▁slows
▁Chiang
▁wrench
▁mastery
▁captures
▁Egyptians
▁Mechanism
▁groceries
▁intensely
▁Prevention
▁plantation
▁convictions
▁percutaneous
▁Kel
▁ipo
▁fern
▁smel
▁Brief
▁Cheer
Article
▁flowed
▁squash
▁blurred
▁branded
▁pigeons
▁pitcher
▁rejuven
▁agitated
▁waterfall
▁regularity
▁authenticity
oct
▁187
▁TLC
algia
▁YORK
ptuous
▁Corps
lifting
▁Excess
▁barred
▁bribes
▁privat
▁stockp
▁alarmed
▁boredom
▁lettuce
▁freedoms
▁stripper
▁aerospace
▁embracing
zh
iong
▁Raj
▁Sof
▁Ferg
▁hect
▁Trace
▁browse
▁hanged
▁mapped
▁merged
▁myriad
▁quotas
▁recurs
▁summon
▁usable
▁Opening
▁dissect
▁inflows
▁Visitors
▁passions
▁masculine
▁whispering
▁bourgeoisie
▁crystallization
jad
▁Thy
brain
▁thym
rawing
▁Train
▁scrib
▁Rodney
▁wetland
▁Taiwanese
▁meticulous
▁infertility
▁configurations
▁Ko
▁ng
▁Jur
anson
ocene
▁Stark
▁maple
▁oranges
▁spinach
▁blockade
▁doubling
▁forwards
▁startled
▁orphanage
▁directional
▁undesirable
ERY
eta
nex
oic
▁MIS
ibles
▁Buch
▁cinem
▁slate
▁Guinea
▁lizard
▁welded
▁apparel
▁lighten
▁Mercedes
▁inhibitory
▁biotechnology
marks
▁nause
▁smear
▁cipher
▁wrists
▁flipped
▁inertia
▁preserv
▁wartime
▁wrecked
▁bullying
▁mellitus
▁widening
▁Testament
▁subscribe
▁estimating
▁theatrical
▁vibrations
▁supplementary
FE
▁Meas
▁Bones
▁Lands
▁Lloyd
▁curry
▁tally
▁fibres
▁sweden
▁trough
▁Evening
▁fiancee
▁phantom
▁issuance
▁charities
▁clinically
▁osteoporosis
▁globalisation
▁Pand
▁bids
▁jews
abolic
▁Birth
▁SOMET
▁rebal
▁Julian
▁sweaty
▁whilst
idepress
▁emitted
▁invites
▁fruitful
▁glaciers
▁granules
▁presentations
wea
▁1.2
▁SOA
▁Veh
▁Jump
People
▁Opera
▁troph
▁Optical
▁fallout
▁folders
▁tubular
▁Resource
▁violating
▁customized
▁internship
▁rendezvous
▁translating
▁DI
▁SV
▁Lung
ocused
▁sarah
▁miscon
▁Vatican
▁drifted
▁starter
▁Northeast
▁coastline
▁readiness
▁dehydration
▁interviewing
dist
isis
vings
▁OVER
▁Surv
▁Turk
▁knob
ickets
immune
ophone
▁disple
▁mutant
▁tenant
▁Solomon
▁dealings
▁manganese
▁allegiance
▁endoscopic
▁inhalation
▁Experiments
▁interruption
Car
▁Rig
pract
▁Glor
▁Root
▁fibr
irates
▁amaze
▁extrad
official
▁Berkeley
▁Wisconsin
▁disrupted
▁preferable
▁Eug
▁MIT
▁nam
story
▁pimp
▁Faith
▁biode
▁curtail
▁passwords
▁inspections
estate
olytic
▁Branch
▁convoy
▁minist
▁Conduct
▁bottled
▁discrep
appointed
▁Changing
▁timeline
Determination
▁Specifically
colm
ilda
▁VIP
THING
▁Kurt
▁Marc
osomes
▁Gonna
▁Immun
romatic
▁Freddie
▁studios
▁vectors
▁filtered
▁outweigh
▁unforget
▁impulsive
▁preferential
▁experimenting
arf
▁PET
▁Raw
erick
▁1940
▁1978
▁frug
▁pomp
ellery
ennial
▁Books
▁EVERY
repared
▁avatar
▁Robinson
▁dopamine
▁openings
▁turbines
▁awakening
▁consulate
▁coagulation
bsp
cet
▁GP
itin
▁aide
▁loom
▁ramb
▁desks
▁werew
▁bakery
▁salute
▁linkage
▁recruits
▁liberated
forestation
▁homeowners
▁asynchronous
HD
ecc
ibo
felt
ushu
▁Mul
▁Pig
▁2016
▁Weap
▁bung
ustion
▁berry
ickness
▁Willie
▁curfew
▁decree
▁rigged
erocious
▁Morocco
▁Shortly
▁anguish
▁drafted
▁fistula
etermined
oxidation
▁hillside
▁offender
▁Chocolate
▁overboard
▁surgeries
▁victories
blown
henyl
urbed
▁Kick
▁bead
atitis
moving
▁Gross
iations
▁arrhyth
▁platoon
▁tripped
▁barracks
▁markings
▁assisting
▁imagining
▁toughness
▁commanders
▁enormously
▁nationalities
bt
wu
aca
arta
eted
▁Fix
▁Elev
▁Pink
▁Zach
▁diat
esting
▁Forty
▁Hanna
▁brook
▁devise
▁revise
▁xinhua
oriously
▁Frances
▁Montana
▁bedside
▁embargo
▁glacier
▁grilled
including
▁filament
▁fourteen
▁shutdown
▁pituitary
▁surveying
tale
adows
ploid
search
▁widen
icapped
▁Export
▁Pharaoh
▁Release
▁consign
▁enclosure
▁inquiries
▁modifying
▁Occasionally
▁sterilization
rov
emer
tank
▁sly
shots
▁trek
▁Scand
▁Woods
▁spree
▁witty
▁Lizzie
▁Kitchen
▁placent
▁Airlines
▁teamwork
▁handcuffs
▁kilometer
▁manhattan
▁restrictive
▁supervisors
▁trustworthy
▁Hui
▁spong
▁Saying
▁Concept
▁immobil
▁simulator
anz
them
▁tas
▁tux
▁Pray
▁bidder
▁safest
▁relapse
▁shortest
▁Injection
▁Melbourne
▁magistrate
▁tenderness
▁extravagant
▁breathtaking
lli
▁Il
OPLE
folk
lynn
orum
▁Ott
▁cic
banese
unders
▁Allah
▁antis
▁defer
▁loops
▁parish
▁staging
▁snapshot
▁consulted
▁entrusted
▁anesthetic
▁expiration
▁unauthorized
roma
▁Fitz
▁Bloom
▁gazed
▁biased
▁cannib
▁masked
▁unsure
ominated
▁brewing
▁screams
▁senators
▁Principle
▁renovated
▁embroidery
▁grammatical
▁thermometer
▁inconvenient
mi
xit
▁3.5
▁Hog
▁OUR
▁ops
▁roy
ocyan
▁Pale
▁moly
▁Veget
xuality
▁Hardly
▁Joshua
▁floral
▁fungal
▁gladly
▁dinners
▁cylinders
▁tolerated
▁commentators
ilyn
ovan
spir
▁Storm
▁crept
▁pleas
▁selen
▁Cotton
changing
▁analyzer
▁prophets
▁tackling
ensitivity
ilongjiang
engineering
▁invincible
▁thereafter
.--
▁IQ
▁ln
iage
▁Coke
▁Furn
▁brat
▁ruby
▁coerc
▁filmm
▁invar
▁roofs
▁extern
▁jordan
▁medial
▁unwind
▁contour
▁ecstasy
▁mergers
▁unequal
▁Consumer
▁agreeing
▁backlash
▁mobilize
▁overflow
▁apprentice
▁typewriter
▁Independent
▁fulfillment
▁restricting
▁spontaneously
entin
▁monst
▁nobel
inently
ortment
▁Hearing
▁rigidity
▁smelling
▁Peninsula
▁assaulted
▁extensions
llo
lyde
▁GRE
▁Alas
erobic
▁baths
▁Bonnie
▁Wright
▁Pattern
▁surrend
▁forefront
▁graphical
▁templates
▁expressive
▁manifested
▁redemption
▁disciplined
▁irreversible
▁CPU
iamen
▁Bone
▁Dipl
▁emig
▁Naomi
▁germs
▁pedag
atology
▁canopy
▁carbox
▁caterp
▁influx
▁bounced
▁swimmer
▁shrinkage
conditional
▁transistor
▁continuation
▁disciplinary
▁emphatically
IFE
odi
abao
isin
▁Woo
▁foe
▁Mini
▁pits
ometers
▁Oracle
▁Orange
▁angrily
▁empathy
▁scarcity
▁dynasties
▁overheard
▁malnutrition
acid
acus
bourg
▁Lift
▁euph
▁Error
carbons
staking
▁dipped
iculture
▁defenses
▁authorize
38
▁va
▁360
▁jig
ondyl
▁Cauc
▁Mode
▁dams
▁hare
▁quen
▁subl
▁Achie
▁Alpha
▁Horse
▁snuck
▁unfav
inition
▁Remind
▁avoids
▁canine
▁lodged
▁braking
▁endorsed
▁pakistani
▁preschool
▁workshops
▁suspicions
▁wi
▁Lith
▁Megan
▁frenzy
▁craving
▁hackers
▁Kentucky
▁guangzhou
▁lubrication
▁personalized
avi
▁Odd
brand
idium
lette
driver
▁mixer
ivorous
▁crappy
▁exterm
▁outlaw
▁viscer
▁blindly
▁impract
▁coughing
▁fermented
▁surpluses
▁taiwanese
▁anatomical
▁intentional
▁pretreatment
▁ww
lord
oser
ubby
ubes
▁BET
▁dal
▁Thing
▁treas
▁plough
▁Brandon
▁crashes
▁flatter
▁itching
▁thicker
▁grouping
▁remarked
▁endlessly
▁obedience
▁teammates
▁Monitoring
▁automobiles
▁substituted
▁abnormalities
▁Implementation
mand
▁Tae
▁abyss
▁debtor
▁pulses
▁washer
▁robbing
▁superstar
▁Economists
▁insurgents
▁inventions
fam
ayan
▁MAR
▁abd
▁poop
▁Smoke
▁rhyme
▁Carson
▁citrus
▁manure
▁shrewd
▁chemist
▁clashes
▁Database
▁nonprofit
▁testified
say
▁hiv
iates
▁Horn
ermaid
pieces
▁Sandy
▁flank
▁hooks
▁milky
▁tacit
purpose
▁lineup
▁purify
▁resurg
▁Ability
▁Assault
▁Melissa
▁gadgets
▁daydream
▁psychotic
▁cheerleader
raf
▁LC
ango
oside
quila
▁Doll
▁Empt
▁Iowa
▁outc
▁Camel
▁scoot
▁tying
voltage
▁Season
▁chunks
▁enlist
▁halted
▁oxford
▁promul
▁Parties
▁brokers
▁puberty
▁Compound
▁cosmopol
▁infamous
▁complicate
▁Secretariat
izen
three
▁culm
▁detox
▁cartel
▁glossy
▁triang
▁warmed
▁Belgian
▁loosely
▁Chancellor
▁concussion
▁contention
▁constituted
▁electrolyte
▁usa
odiac
ropic
vision
▁Feels
▁Spend
▁bogus
▁neutr
liction
▁Stalin
▁erased
▁hearty
▁overfl
▁Sheriff
▁propell
graduates
▁Fighting
▁calamity
▁Important
▁directive
▁thrombosis
▁disillusion
▁XX
lain
▁NBA
▁mono
▁Maine
▁filmed
▁manned
▁jogging
▁guarding
▁subprime
▁Molecular
▁bathrooms
▁denounced
▁penicillin
▁insensitive
▁slaughtered
▁incompatible
▁investigates
▁underestimated
big
▁Oz
▁Ana
▁Blu
liant
▁dred
rowing
▁Catal
▁invig
▁convex
▁Outdoor
▁cashier
▁strapped
▁tutorial
▁governors
▁injecting
▁transducer
▁overlapping
▁refrigeration
iago
annon
▁Spot
▁hydr
▁bland
▁Harbor
▁condol
▁tonnes
▁unhapp
▁Customers
▁inference
xus
▁TN
iman
▁vex
affin
▁Shir
▁ammo
▁carl
▁glee
ispers
▁Admit
▁bowls
▁chris
▁amelior
▁muslims
▁perpend
▁sulfide
▁sinister
▁astonished
▁childbirth
sim
ittal
▁Jama
▁Them
uchess
▁Chase
▁Jenna
▁knots
▁Proced
▁batter
▁princes
▁defaults
▁attorneys
▁pyongyang
▁vertebral
▁Millennium
▁immunohist
▁millimeter
▁moderately
cade
phis
plus
iesel
media
umers
▁Cody
▁Role
▁acre
▁piggy
running
▁PEOPLE
▁handset
▁puzzles
▁Memorial
▁Immediately
▁imaginative
▁knowledgeable
pu
issy
ocre
▁bic
▁boe
spect
years
▁Sequ
▁akin
▁leash
▁spasm
▁libyan
▁stride
▁Initial
▁standby
▁builders
▁fittings
▁ferocious
▁reimburse
▁Securities
▁unbearable
▁controllers
▁disabilities
AGE
won
▁hp
▁oo
▁ISO
▁MAT
▁coh
alone
▁Sull
▁scru
umatic
▁Himal
▁menace
▁tester
▁Stadium
▁stumble
▁surging
▁parachute
▁Hag
othal
▁vern
▁wast
ocating
roscope
▁Annual
culation
▁Compare
▁corpses
prisingly
▁bloodstream
Go
IX
▁Spa
▁ibm
watch
▁soot
▁Fifty
▁Editor
▁quadru
▁shakes
▁Natalie
▁sprayed
▁lengthen
▁mornings
▁noticing
▁snatched
▁guardians
▁constructs
▁sequencing
▁handicapped
ascal
iline
▁Mour
▁Purch
▁blaze
▁sakes
uropean
▁alumni
▁iconic
▁Fernand
▁clutter
▁rejoice
▁spindle
▁mastered
▁stringent
hall
lein
mass
▁Lev
▁kitt
rasion
▁pedic
▁utens
ivalent
▁diaper
▁clauses
▁oblique
▁credited
▁deceived
▁modelling
▁disturbances
▁consultations
▁Desk
▁curl
▁Ether
▁chile
▁unden
▁vegas
▁buffett
▁disdain
▁obtains
iltration
▁mischief
▁localized
▁Historical
▁electrostatic
▁massachusetts
▁predominantly
QU
ASS
ucc
▁Eb
isol
oran
strip
uthor
yards
▁Days
icator
▁disco
eredith
▁alarms
▁amused
▁Breathe
▁plainly
▁hearings
▁recharge
▁secretive
▁sediments
▁fellowship
TD
oxin
▁SOD
▁Synd
▁Losing
volution
▁Roberts
▁robotic
▁seniors
▁skeptic
▁tenants
▁undersc
▁assholes
▁dedicate
▁thermost
processing
▁goalkeeper
▁inspectors
▁unforgettable
BLE
▁1981
▁ruff
▁Graph
▁Plain
▁curly
▁delet
▁herds
bastian
▁regimen
▁corrosive
▁patiently
vil
gory
▁URL
▁shaw
forces
▁Marco
▁comfy
▁pedal
▁windy
▁Flying
▁errand
▁sturdy
centered
▁Buffalo
▁aerobic
▁flaming
▁blossoms
▁bouncing
▁correcting
▁compassionate
▁Wa
▁BMW
wives
▁1945
▁rasp
overty
▁Flash
▁figur
▁hasty
▁shouId
▁charlie
▁revived
▁vaguely
▁fastened
▁packaged
▁reminding
▁graduating
▁sentiments
withstanding
▁corresponds
▁stabilizing
▁authoritative
lat
neg
anky
▁Chem
▁Ster
▁barge
▁unlaw
▁Bulgar
▁adjour
▁imposs
▁paired
▁stinks
▁subdiv
▁cascade
▁impulses
▁dignified
▁hardships
▁disconnect
▁televisions
▁Manufacturing
[...]
